/**
  ******************************************************************************
  * @file    network_data_params.c
  * @author  AST Embedded Analytics Research Platform
  * @date    2025-08-29T17:35:16+0100
  * @brief   AI Tool Automatic Code Generator for Embedded NN computing
  ******************************************************************************
  * Copyright (c) 2025 STMicroelectronics.
  * All rights reserved.
  *
  * This software is licensed under terms that can be found in the LICENSE file
  * in the root directory of this software component.
  * If no LICENSE file comes with this software, it is provided AS-IS.
  ******************************************************************************
  */

#include "network_data_params.h"


/**  Activations Section  ****************************************************/
ai_handle g_network_activations_table[1 + 2] = {
  AI_HANDLE_PTR(AI_MAGIC_MARKER),
  AI_HANDLE_PTR(NULL),
  AI_HANDLE_PTR(AI_MAGIC_MARKER),
};




/**  Weights Section  ********************************************************/
AI_ALIGNED(32)
const ai_u64 s_network_weights_array_u64[74709] = {
  0x3e081742be500558U, 0xbe9e4bedbca51b19U, 0x3e3048cfb9a3e5d1U, 0xbe26c60fbdd38868U,
  0x3db344133ecec102U, 0x3e8d55693e85dcf6U, 0xbdae372fbdcdf09fU, 0xbed969d2bb5430d0U,
  0xbec3b195be87cce0U, 0x3e57f1143e987d49U, 0xbcbf7ca33e9ef1dbU, 0xbc6431ab3d84fb87U,
  0xbe8383d0be9c74ddU, 0xbe778155bde0a012U, 0x3dc8d7f03dba9681U, 0x3e493e023e4472a6U,
  0x3e46a3a73eb7bb2fU, 0x3d3c36133ec11f9cU, 0x3e91e57a3edb1c20U, 0xbdc540d5bd628a40U,
  0x3df908893e39ac02U, 0xbe2139923cdaaf0aU, 0x3c7f5d243e91a8fdU, 0x3dc50cac3d0c97b5U,
  0x3df3d7bf3e5e91e7U, 0x3e99c0ccbcc8ace1U, 0x3e8d75613e663f2fU, 0x3ec04c823f063763U,
  0x3ee9a71fbe749d48U, 0xbe2a609d3eed892eU, 0xb8f1a11bbe20334cU, 0x3eaabcf93c0f3166U,
  0xbf11d610bdf7465bU, 0xbe6e1376bea48ad5U, 0xbdd44c0abe39d809U, 0x3e4727063e03f3deU,
  0x3d980f9d3cf8e305U, 0x3c80c47fb996b3c7U, 0xbbd6bbf3bbb2b893U, 0x3e0039453cc920e4U,
  0x3e94159dbcf10c54U, 0xbe67a40b3e7bae37U, 0xbd2537523e288801U, 0x3e8fb34c3e28f148U,
  0xbba5c0da3e714f43U, 0xbe7222153e54fe8dU, 0x3ccef2483e4209aaU, 0x3e6e5d03bd35abf4U,
  0xbea978efbcd6acdfU, 0xbd1bbe9abe2fdd5cU, 0x3e3f29acbe0555b5U, 0x3e9b79f6bed96bccU,
  0xbe3303a03e800700U, 0xbd4e3cf53d4655e9U, 0x3c5fffee3caa7f30U, 0x3edb4c36bcf46530U,
  0xbea6e6113de0b691U, 0x3d0cdb64beb099dfU, 0x3e4d0e89bdb1b715U, 0x3e71a7abbec3bf8bU,
  0xbe55f39c3c1d557eU, 0x3e3b6c9dbea68cc2U, 0x3e7d5d68be0a655fU, 0xbe2b1250be1142deU,
  0xbe583c563e105ae7U, 0x3eaab8733c0fd2caU, 0x3d8dc68cbd53198fU, 0xbe0c8d3dbe06d596U,
  0xbdbd0eadbe95f5f0U, 0x3e9610f43e21fff6U, 0x3e257cbdbe0a85d4U, 0xbe5a2d0abdf360b3U,
  0x3e8e7632be9c5746U, 0xbcfc033c3eef18edU, 0x3dcf5286bde35e9dU, 0xbd64c89b3db46399U,
  0xbe1dcf193e385ce7U, 0x3dac8ef1be166c7dU, 0xbdab569f3c7e9b3aU, 0x3dc86dedbdfb584dU,
  0xbd1b4d5c3d99f626U, 0xbdcab96bbe919bb9U, 0x3cc8dee1bd335a29U, 0xbd83c7f3bd1cf449U,
  0xbeb7865a3db970ecU, 0x3dcff081be6065d5U, 0xbd2591ee3e4fa4b4U, 0xbd2f1e4dbdc04be8U,
  0xbea122ac3d82ea83U, 0x3e09f9b5be47a3cfU, 0xbe199049bde0ce5fU, 0x3eaaaa7cbdab24d8U,
  0xbe2c4fa83e6094d8U, 0x3df5ca1fbf00a7baU, 0x3d17e5bbbd8a4b9aU, 0xbd066f81be601627U,
  0xbe59a1003e5dfce7U, 0x3dac63c9bd4bb3b7U, 0xbd33523e3c648832U, 0xbe2f255b3bc1dad3U,
  0xbe3be4153de5460fU, 0x3cdf829fbe7beef8U, 0xbbd99e513c9c502eU, 0xbd3830c7be924a96U,
  0xbec349fa3d062146U, 0x3e367e44be591e74U, 0x3dc4eace3d8d392fU, 0xbc8a008ebe2fb1edU,
  0x3d42703bbe47e8e9U, 0x3e2c3f6bbe26f216U, 0xbd37fdfa3d649293U, 0xbd2e69253e1d03edU,
  0xbe5d53173e69f940U, 0x3d86d4923d6db5afU, 0xbddd2d753d1f59acU, 0xbdd1c48e3d84dde2U,
  0xbd738766bd056a68U, 0xbc7306e7bb388da9U, 0xbd9cf1e23e18d6c3U, 0xbcb5a0e73e57f905U,
  0xbe46ecd23e6b8d64U, 0xbca902fcbeb76300U, 0x3df9ce503e339cadU, 0xbe13c4873e19f32dU,
  0xbe6814943e89c0a7U, 0xbe2ab8b13df4206dU, 0xbe2c2cee3e0518b4U, 0x3ce4e741be2c9419U,
  0xbda7680c3e615bdbU, 0x3e38575cbe2f03c2U, 0x3e11aaa8bdade179U, 0xbe04a6b73d13d457U,
  0xbe14d57fbd49dcf6U, 0x3e1627dabe9e377aU, 0xbdba2301bdf4b68bU, 0xbe5ce9973b09049aU,
  0xbd16b6e73e8dfb15U, 0xbd46aebabdcfc717U, 0xbd7240a43d877bc9U, 0xbd3d513fbebb34c3U,
  0xbe8db4b03e022267U, 0x3dad6bbfbdbe40beU, 0x3c0dc65c3dac8ff6U, 0x3cc0340a3db5cf36U,
  0xbe5dc9b1bcbb3a61U, 0xbe214cbebdaa3c42U, 0x3d97c34dbde0a521U, 0xbe69e7d43d2c2128U,
  0xbe827362be1a1c1cU, 0x3c2f099dbebff472U, 0x3e5266883e18a3cdU, 0xbe4df33d3df0f50eU,
  0xbda700d4bd5cc8e0U, 0xbe356e11be942392U, 0x3c87720c3e13fefeU, 0xbde6b0d23e0d11f3U,
  0xbe03dd4d3e300a08U, 0xbe5ade54be7c4270U, 0xbcfe6c03be1ec908U, 0x3ca1b43bbea20b84U,
  0xbebf3b213d7b39b6U, 0x3e0c7af1bec30501U, 0x3e09c32f3e6ae1c7U, 0xbe5c9a0b3e3cb75eU,
  0xbd1009debe559a00U, 0xbda37bd3be8f3214U, 0x3e50c60ebcab4e6aU, 0xbde88bffbdaa141bU,
  0xbe3d4c013e08c35fU, 0x3d9df708bef59de0U, 0xbbc65b08bd349e6dU, 0xbd1ea68bbe3e962dU,
  0xbe25a7013e2623b5U, 0xbdd1b1de3dc987aeU, 0x3d8f3d123d2ac0a8U, 0xbdb5081d3de9e87fU,
  0xbdd3e150be4c1443U, 0x3d0f8f49bdf597daU, 0x3dd207c23e0cff40U, 0xbe5a2a89bc78cf99U,
  0xbd3a796d3ae6b214U, 0xbba4efe6bb98fcbcU, 0x3cf282cbbe306445U, 0xbd028ffbbe0f4f20U,
  0xbdeff4903dd20168U, 0xbd1d9d62be19d4d8U, 0xbdcac626bdea8becU, 0x3c350f67be2e7ae4U,
  0xbd30bcd7bdf44ddcU, 0x3cd11606be968716U, 0x3dc6b6d83c978ea5U, 0xbe25fa4f3e4da4a3U,
  0xbed092623df7f6e3U, 0x3d830172bd49c4e9U, 0x3de5aac03df170f2U, 0xbe1bced83e4521a2U,
  0xbdb4e667be09115cU, 0x3dcee9a0bdeb40b4U, 0x3da15a63bdc01eb4U, 0xbd202120bd68ecb3U,
  0xbe82a578bd8aad66U, 0x3dedac6bbea56978U, 0x3ce2f2cf3bf1ac83U, 0x3c89e1be3e14a662U,
  0xbdb338de3e192369U, 0x3dbdd0f0be1eccf6U, 0x3daf401e3d492343U, 0xbd95ba21bd09ba08U,
  0xbe3a3be03e19941bU, 0xbd307b69be2d47dfU, 0x3dcb26693d2dd495U, 0x3cc41c96be3cc659U,
  0xbdc86e71bd24c838U, 0x3e178447be9c9118U, 0xbdfb47aabded6031U, 0xbd9b3fe33dc37981U,
  0xbdf0355e3d41cbc0U, 0x3e0577e0be4ecc80U, 0xbc23a3163d0f3ca9U, 0x3cdeaca8bdcad212U,
  0x3eb7385e3c88d5acU, 0x3e1034233ec01871U, 0xbe33bd813e403b08U, 0x3caa93cb3e551b45U,
  0x3cdc09f6be265f78U, 0x3c98ccd83e4a5d5cU, 0xbdd694843d5d643aU, 0x3dc6cda63dcd7068U,
  0xbca10a4abe3ff767U, 0x3e809395bd9bffbdU, 0xbbbdfd7b3e3413dcU, 0x3bb4ec1a3cb55b5cU,
  0x3df3de95be32b8b8U, 0xbe65a4b33e5771c4U, 0xbe8fb69bbc733d62U, 0xbcc673b13c23d5f7U,
  0x3e00861bbe4612f1U, 0x3cc0a69a3e783188U, 0x3d8d63113d8a4ee5U, 0x3ca6cf843dc66770U,
  0x3ea631d3be84b483U, 0x3de890133e8be926U, 0x3e0cd0f93c512b95U, 0xbe4772373dfb3867U,
  0x3eaa023bbe6e5b14U, 0xbe5814083e452ba6U, 0xbdd92b3dbe9a9beeU, 0xbe884616be3c3096U,
  0x3e90c52ebeaaaec1U, 0xbbad64bb3e48a492U, 0xbda3e4aebd5adefbU, 0xbe803278bd180aabU,
  0x3ea018ac3cc5b859U, 0x3d60434f3f06d932U, 0xbe0574943e000521U, 0xbe5bbe98bdde2eccU,
  0x3d1ee9d4bd93a97dU, 0xbd1e85313d865b42U, 0x3cd2fc3e3ea6c003U, 0x3da3300e3e99ad39U,
  0xbdc982d73db3168aU, 0xbe77cf2a3d080dcfU, 0xbe2bc154bce8671cU, 0x3c6cfce43d84d2c4U,
  0xb9c0835abd93a212U, 0xbe9fb3e9be582f4bU, 0xbe7536be3da4a9deU, 0x3d956f8ebe0a3f8eU,
  0x3e47924d3cbae75eU, 0x3cc86cb13e7c1b5eU, 0xbdba84df3d34fb1bU, 0xbc6a1c1b3e9dcabeU,
  0x3d9cf5e63c695a24U, 0xbe192ce03d897048U, 0xbe281cd0be112047U, 0x3e20cfe73c586b90U,
  0x3dc6b08a3e61e65fU, 0xbdc2fdadbd98fa0fU, 0xbe706c39be01cdabU, 0x3ddc7b083cdc8689U,
  0xbd088642bd4da9f9U, 0xbe98b5cc3e997c72U, 0xbdff3d913c42d608U, 0x3e2eb5e43ad35070U,
  0x3d84b7de3dcb64b5U, 0xbe51be2b3d5ca315U, 0xbe8953363d88a2a3U, 0x3e81d15e3d856111U,
  0x3dca2d59bb08ecfaU, 0xbdba7251bd8c5ce3U, 0xbe068464bdd5848fU, 0x3d46931abdc900d0U,
  0xbe223ce13dc81ec2U, 0x3e088effbe33b20dU, 0xbd4227903c4caca4U, 0x3e0ec0a53e02e222U,
  0xbe581d05be44e5dbU, 0x3e481cc0be8860d4U, 0xbdb885dc3db33ecaU, 0xbd6af3a7be552b6cU,
  0xbc88105a3dbaa096U, 0x3e502a35bd001611U, 0xbddd700b3c7c2575U, 0xbc3c6f78bda99599U,
  0xbe87b729bc562c6cU, 0x3e0470edbe90cc37U, 0x3e21b2c4bd5a56d1U, 0xbe3077b0bcd9ed11U,
  0xbd972d19be3dbe17U, 0xbd6ea72abd5f9ff5U, 0xbd2f24d33d53c809U, 0xbe86d56fbc597c23U,
  0xbc91e36ebe67e39fU, 0xbd8fc91e3e48a01aU, 0xbe17aec4bd553a2cU, 0xbe87cf943e1ed5e3U,
  0xbe57e2fdbd5ff600U, 0xbe2c1e6a3dc76bf2U, 0x3ddf8a493e1daac5U, 0x3cd48eb73adcb3feU,
  0x3d82dc08bcf60cb0U, 0xbc0d69a23e2b38dbU, 0xbd58fadc3cba386bU, 0xbe5f61f3bd139a1aU,
  0xbe01f7e93c021aceU, 0x3daf85d23dc10598U, 0xbd27f63b3d407f2eU, 0x3e4536a73dccaedaU,
  0xbb1fbcfbbd5e95ebU, 0xbe479a113d04914dU, 0x3b1bb2c3bd24b612U, 0x3d081e33be4c5cc4U,
  0xbdcbb0913e77ced4U, 0x3de683023b81150aU, 0xbdf0aa61bcf2b488U, 0x3cfb66c1bdeb583bU,
  0xbeb36b993e7c7d10U, 0xbad164d6be0d847eU, 0x3d5303853e65020dU, 0x3d350cec3d4fabc1U,
  0xbdacacb1bde8d907U, 0x3b5c2561be982e59U, 0x3d800f9bbd6561bdU, 0x3dd7b6bdbe186726U,
  0xbe86fb293e58c315U, 0xbdaf5824be87450dU, 0xbe118b483e0dbae4U, 0x3e4671debe1a8a9eU,
  0xbed3f9033e5dff6eU, 0x3e2b6498bd8c16acU, 0x3d8449213e140f6fU, 0x3c79b1b73cbfd006U,
  0xbe975542bd090384U, 0xbe0e7e063c57c050U, 0x3dc81f4d3da7470bU, 0x3cd33d76be607868U,
  0xbe8bc2af3cbfe05bU, 0x3e0a7ce3bdad256fU, 0x3d90e387be2b75b8U, 0xbc4f9afdbe72686eU,
  0xbecb72ae3e127ee1U, 0x3df1dae4be325d66U, 0x3e2999debd77228eU, 0xbd90230b3de938efU,
  0xbd9776f7be345affU, 0xbcd3df043dee0addU, 0x3e33cde03d958e40U, 0xbda364883e5c25b7U,
  0xbd247ba3be8565e9U, 0x3c4734c3be880923U, 0x3d575aed3d6b87a2U, 0xbe300fc8be0b3ddfU,
  0xbe69f01fbd216973U, 0xbcffd773be0d2baeU, 0x3d14d288bd1f521fU, 0x3d668824be839c72U,
  0x3df455043d0b73d1U, 0x3d3d35ea3d246962U, 0x3d7762543da00e42U, 0xbe2f2686bdac61feU,
  0xbe1de72cbe6f9d24U, 0x3dea57743bf429d2U, 0xbe19918abcc6792aU, 0xbdf5929f3e5545e8U,
  0xbe17775fbe6f5d60U, 0xbdf54de2bcb46452U, 0xbd4317cf3e017eebU, 0xbe38f38f3d3d3cf2U,
  0x3e0892053dfaad95U, 0x3ca9eb63bcf7c78cU, 0xbdc6537abe17a2a4U, 0xbe870898be3cb434U,
  0xbe1707813e6b01d0U, 0x3c29b7c23e17719dU, 0xbdad3b443d1f40cbU, 0xbe387ec13d23e7c7U,
  0x3daead55bde91ec4U, 0x3c077ee43cdb7c75U, 0x3e157b2b3dcab58bU, 0xbe7438593dd7824fU,
  0x3e5f85babe524f71U, 0xbe3eda9f3e8cd9a7U, 0x3dcdd04dbe4916b4U, 0xbc98ef9fbc99ae29U,
  0x3e1d7026be0a331bU, 0xbe0f91263e4ee944U, 0xbda92e0bbe332459U, 0x3d99b850bdc66ccaU,
  0xbd9a1612bdb9f7dbU, 0xbe6ddf773e62e08fU, 0xbdb075c93a5b4153U, 0x3e5986d0bcb9c3e9U,
  0xbdd8d57cbd9735bdU, 0xbddaa44ebea022dfU, 0x3e31e2613daae0a7U, 0x3e39ec2bbd9420b8U,
  0xbd7068b73c9e8cbbU, 0xbc945e9cbdf171b5U, 0x3d37bf1abe36141eU, 0xbddd8eedbdbfd240U,
  0xbe94f695be00331aU, 0x3e09f87dbe5b97edU, 0x3caab183bd34f0beU, 0x3e72f450be47ad91U,
  0xbd2adcd93d8e29d1U, 0x3e7d7ecf3e64674cU, 0x3dca75a13e8060ffU, 0xbe3a24663d91d67bU,
  0xbcbcbc2cbddecc36U, 0x3e87eca6bd6009ceU, 0x3e3288bdbcfd7ea6U, 0xba65b33c3e231658U,
  0x3be72dc8bd4a1f89U, 0x3e3e48cf3d8dc49bU, 0x3e224f2dbe195effU, 0xbe5cedf3bdea6c85U,
  0x3e3298663e4cddbdU, 0x3c91ebb83d5f8151U, 0x3ccd63fbbc55b492U, 0x3c9c0179be9f05d4U,
  0xbce8d5363e82b5b7U, 0x3d3b3f56bd152610U, 0xbdaa73ad3e1d7c44U, 0xbe8f4e9d3dbf22f9U,
  0xbe92f3473d586d58U, 0x3e4cb4a5be9f1bd6U, 0x3e6174bf3d5db54fU, 0xbeaa4df33d916c0dU,
  0x3c3165f33db08435U, 0xbdf91cb63c89aa07U, 0xbe3202cbbe4a36c6U, 0x3da3e889be6f5088U,
  0xbd53f74ebc62dd27U, 0x3e00b4b6bd849bb4U, 0x3d77340d3ded2849U, 0xbe2c321abe5c4553U,
  0xbed6fc413d93ecdcU, 0x3d289fb4bd78ad5fU, 0x3d82eb613e0a5994U, 0xbedb77353d8af7c8U,
  0xbe1e4ff63e81f175U, 0xbc30df36bea5d470U, 0x3d38b4a2bca1f26bU, 0x3c413bbabeb81744U,
  0xbe9df56a3e20a6e2U, 0xbdf47961be46ac5fU, 0x3d0d1f8dbdd13dbeU, 0xbd92bffcbc93ac23U,
  0xbe5342c13e2d026eU, 0x3d15c466be50b33eU, 0x3c89c7903e069721U, 0xbdf3804a3e03bb02U,
  0xbe47b81dbe105656U, 0x3de27090bca3dda8U, 0x3e26433f3e46ade1U, 0xbe484fac3db85badU,
  0xbe92c1893d2d6825U, 0x3e3c5945be8d153fU, 0x3bb1603b3e46ec38U, 0xbe94e6b2bd2fa514U,
  0xbe9c2b193d86baf0U, 0x3e4b76703d582d2bU, 0xbdfaea8fbd1cf278U, 0xbeacce7f3df5f7cfU,
  0xbe18ae73bd491693U, 0xbd3e3624be75bfedU, 0x3db9a1ba3dce53cbU, 0xbe8291cf3e045f51U,
  0xbe625caa3e0f4c6eU, 0x3c345445bd2e6edbU, 0x3df914c53e5d7f80U, 0xbed5bed7bd0b7e45U,
  0xbe89df17bc35f4bcU, 0xbd650b51be4091acU, 0xbe1f4a93bd40f408U, 0xbc9c86b8bdb76d38U,
  0xbd0a83473e2df2a0U, 0x3d8f4f3ebe2ee4a6U, 0x3e048bc2bdee92c5U, 0xbe3596a3be0225f5U,
  0xbe9f87c0bd97a6a1U, 0x3cde1370be8b5514U, 0x3de402bcbd26c445U, 0xbe9b982a3de76c4aU,
  0xbd921232bdea6bffU, 0x3d54d4d6be9994e4U, 0xbcfd528ebddb43bfU, 0xbe3257713dde1e7cU,
  0xbe8ba0033e77eb2aU, 0x3e0a0e7fbe743c94U, 0x3e7a49633d8cb657U, 0xbd4243783e867fb5U,
  0xbdee6853be6aeda5U, 0x3ca963e1be1a40a6U, 0x3c8f50e3bda6e569U, 0xbe3495933cc78815U,
  0x3de66d3fbe525111U, 0xbeaea4c8be95b0d7U, 0xbe241e4bbe2e4c77U, 0x3d8d5144bc9ce97aU,
  0xbe564fdf3e99ffafU, 0xbda5a2093ce65f48U, 0x3d985c9e3e5f2f37U, 0xbe874c72bb96eb76U,
  0xbeaaed823e0910c0U, 0x3e042693be8ff634U, 0x3db8c1cabdd27465U, 0xbe95e81f3dc91480U,
  0xbe8ab459bea0664fU, 0xbe9e685abebc9c5fU, 0x3d2f9a17be56eaf6U, 0x3e0ba37f3daffafcU,
  0xbe02d8343f109307U, 0xbc337a8ebe205566U, 0xbde3ca423db28e4cU, 0xbeca2166bcb06cd6U,
  0xbe952b993eed8bfbU, 0x3de7746cbe7bda74U, 0xbdb5bb9fbba1ce16U, 0xbcd446cb3e9de5a9U,
  0xbed0869ebe2d2f3fU, 0xbe1cabacbf0d741eU, 0xbcc043f5bcb9be53U, 0x3d9d9a963e050cd4U,
  0x3db11076be5d0cfaU, 0xbe1d60663e4039ffU, 0x3bfa205e3db9c9ebU, 0xbdc958fbbc816a08U,
  0xbd6c62d8bca85e04U, 0xbd65b996bd86e5cbU, 0xbdd2e394bd86bf5bU, 0xbcaa41b73daf9b78U,
  0xbe0c85d8bc03b7bbU, 0x3d6e0d0fbdb68794U, 0x3e3424363be5a47fU, 0x3d6936e7bc4bb774U,
  0x3d79c7193de04fa3U, 0xbd7e7ca53d528081U, 0x3de7a1053c5aa4b2U, 0xbe47af85bb895af5U,
  0xbd1e67fbbe37d0bcU, 0x3e111d38bdc928e9U, 0x3db3bea8bd8ba072U, 0xbe14e7ebbda9d9f8U,
  0xbccfdd3cbe1a8468U, 0xbd4251c3bdfe3542U, 0x3de2196d3dc2a599U, 0xbe78de0c3dfdb4dfU,
  0xbe4b32763c5d7b30U, 0x3dbfc88fbc9fac14U, 0xbd867de33d01e016U, 0xbca3453d3bd5c253U,
  0x3ce2ee62bdb3c982U, 0xbe3d59c1be2d631aU, 0x3dddde633da877d5U, 0xbe3244c13e07b55aU,
  0x3dabfa5abdcf3ae8U, 0xbda964be3e050bd5U, 0x3dc9d4513db1249cU, 0xbd9d16f9be0d3bf7U,
  0x3e364e46bd24d206U, 0xbdc3ba973e9d5bbdU, 0xbe470dc8bda34007U, 0xbe795e5e3d2d5b11U,
  0x3e930c46bd91d2acU, 0x3e5853933e355114U, 0x3e3a07853e43e145U, 0xbe8f9e3a3e08e1eeU,
  0x3e76d1e6ba42411fU, 0x3dc5cb093ea71f2dU, 0x3e48c1353e772d28U, 0xbe8375d23e14400eU,
  0x3ee6510bbe145276U, 0xbdab98bd3ed805c5U, 0xbe723b893dd09f3bU, 0x3cf16139bb930a4eU,
  0x3ea2a664be991ce0U, 0xbd7013d33ebf028fU, 0xbe8182a03d899d9fU, 0xbe285b4cbda28ba9U,
  0x3e361fb3be4a37fbU, 0xbdcfecf23eaeeee8U, 0xbe165cacbd33154fU, 0xbc8299003e0c687bU,
  0x3e6e1bcdbd9a0c6dU, 0xbe00e9563c8ea319U, 0xbe8f10c9be522593U, 0xbd94f0ffbecee57eU,
  0x3d8588833d2dbea6U, 0x3cc3fd763db9ace0U, 0xbced6514bde0d53aU, 0xbe0bf3f6be4eede0U,
  0x3e9e50e13d8c49c9U, 0xbe5b4a733dde7733U, 0x3cfa2bd13d962ce6U, 0xbda4be1dbe8d2a19U,
  0xbc1202dcbd8c7dfaU, 0xbc93191c3c776b14U, 0xbcf3c4c1bd1cada6U, 0xbd6876fe3d4f0184U,
  0x3954cac53bceb6d9U, 0x3d06c45dbd222f05U, 0x3dd9121abc67d991U, 0xbbf63faabc89ae52U,
  0x3e09e5ea3cdb1f0eU, 0x3d1aef683cf71579U, 0x3ca890be3d8b47e9U, 0x3d4ed12ebc0f4dfaU,
  0x3cf2ac963cca5ecfU, 0xbbc6824a3cae0e0cU, 0x3d7b27193d927c11U, 0xbcfd8cf93db4ba48U,
  0x3c6a20d6bc0fd39aU, 0x3d9bd2c33c25a8deU, 0xbd60a6afbb9c2888U, 0x3d8590dbbb5e84a4U,
  0x3da99fe53dad54caU, 0x3d8e03ac3cae93b5U, 0x3d90bea03db05e7dU, 0xbcf451653cf7c3f4U,
  0x3d096d903d03e1c1U, 0x3cc7e8b7bcccd7aeU, 0xbc59f5193d40c263U, 0x3d7d77a8bc91abd5U,
  0xbc84d43fbc1601efU, 0xbc288c433d85c62dU, 0x3dbfc2e43c5d4d9fU, 0x3c6e065c3d20ab5bU,
  0xbc579f01bb0f7babU, 0xbc90b83dbbe6f672U, 0x3c54c895bc307233U, 0x3cb5ee8ebc65cee8U,
  0xbc8d3626bc8b1eacU, 0xbd2996a93cb3cc57U, 0x3d172bde3d345cdeU, 0xbd850f333c124254U,
  0xbc831e56bb9777c0U, 0xbd4c56d33c1eca89U, 0x3cbb989b3c249886U, 0x3d2c053cbb7e6adfU,
  0x3cfc7f8f3d93898eU, 0xbd12f435bc88fc97U, 0x3d187cdbbce4459eU, 0xbc5fe2e9bd449b9bU,
  0xbb3644583d468d64U, 0x3c2944603d8e7af2U, 0xbcb3295b3aea078cU, 0x3d64c889bc9a6111U,
  0x3c9b82623c86c852U, 0x3d945ba33d3cf3b5U, 0x3d4c3260bb1a2e39U, 0xbbc08e4a3c95b2f2U,
  0x3d45176b3d6796afU, 0x3cf058ff3d972ba4U, 0xbdb090c23d73898bU, 0xbc94bdea3bb5b5b4U,
  0x3d109b58ba9cb3e3U, 0x3d7e898b3ccee4caU, 0x3d8ec22c3d1cd3cdU, 0xbdaada11bc392e76U,
  0x3d3006ff3cfc9128U, 0x3d2292683cd3a99bU, 0xbd4237fd3d067c6eU, 0xbb8d74123c094b97U,
  0x3d4b8182bd32a530U, 0xbc051a123d88279fU, 0x3ccf1c2c3bc65065U, 0xba28aa223cf503e1U,
  0x3c350e01bd3eaaa2U, 0xbc17c054bc8539a8U, 0x3d1a3bdb3cda2e13U, 0xbd4313ebbcccce27U,
  0x3cc5d454bd49c9c2U, 0x3d26ebfbbd1cf7edU, 0xbcbf85fcbc3bb32fU, 0xbb47d36d3b6b780bU,
  0x3d398ab0bd9203cdU, 0xbbecdb843d64b540U, 0x3ce3a6523d32a87bU, 0xbc80659a3d3771b6U,
  0x3c013a6dbd0c01fbU, 0xbb658653bc8c23c1U, 0x3d316b95bd2bd4b7U, 0xbd12f299bcb126f0U,
  0x3d20a8833d139966U, 0x3d3751533d0eab1aU, 0x3d474411bd236920U, 0x3d2410fa3c01958aU,
  0xbaf4f853bd242e04U, 0x3d621f4d3cfc4de5U, 0x3dd06b103d8223ceU, 0xbd24f7dd3cda9108U,
  0xbc1edb5a3c537c4aU, 0x3db11d9ebbce7c0fU, 0xbbdacd8a3b1116f1U, 0xb9a1fb303bb61cb3U,
  0x3d4c5c473cbee6c9U, 0xbc4493f63d50d8d2U, 0x3df23e633c8213adU, 0xbd5b730a3d8f7406U,
  0x3d08a61b3d8b946aU, 0x3cc3be613d678336U, 0x3ca682153ba62d74U, 0x3db3c8873c89b35fU,
  0x3dc902bbbc55d346U, 0x3bf04c9b3d5269d0U, 0x3cc6c6fd3b381d64U, 0x3d03f1853d30c3c5U,
  0xbcb763aebd083778U, 0x3bbee34e3d7547f2U, 0x3d3daeadbc1fba1dU, 0x3d0af06e3d24ac87U,
  0x3bdac5a83d9df5cfU, 0x3b634891bd16f314U, 0xbc85f4db3d742cb7U, 0x3b8dfcae3c82a120U,
  0x3d116810bbb49edaU, 0xbc3a91043d9c086dU, 0x3cf6fb79bc8e1d3bU, 0x3cb504583ac484f7U,
  0x3b6ef05b3d7fa28bU, 0x3b955bc73d376e0bU, 0x3ddc1e0abbec6e23U, 0xbc089644bc6186f8U,
  0xbbab4a6a3da80509U, 0x3d7440b9bc3d6e43U, 0xbae8310bbc4ac59dU, 0xbd1092843b5644d5U,
  0xbcee3543bcb14855U, 0xbd2fe67b3ca3a66eU, 0x3bd7afccbcae9903U, 0xbda9369bbcc9a2fdU,
  0x3d1529343d4f1731U, 0xbc1a5f71bd11f82cU, 0x3d8afb8c3ce63569U, 0xbd0e9b49bd251387U,
  0xbd675bfc3cd53423U, 0x3d0066063b80969eU, 0x3ca494a1bd5c8006U, 0xbc38e933bb62ec85U,
  0x3cdaea873ca1c44eU, 0xb9e2d5c93d86474aU, 0xbb1da7823d477ae4U, 0x3c42fd46bd3c4eb2U,
  0x3d4b06473c2fb806U, 0x3d05f2f0bcf9e757U, 0x3ce8ca263cf77333U, 0x3d6211f73d1429cdU,
  0x3d18796d3d54ee25U, 0xbc901a253d62c45cU, 0xbdd0b5143d06559bU, 0x3d873cd2bc87068eU,
  0x3c9107973d489319U, 0x3cf267c63b878167U, 0x3d94d1b03c012fa9U, 0xbe1e3b06bc13a621U,
  0xbd55b7be3ba6f4bbU, 0x3d7af8603d4d8bdfU, 0xbd17083f3d2732acU, 0x3d3520b7bca3b664U,
  0x3c6daf5fbd4da1b6U, 0xbcf649edbcdf1169U, 0x3d7eb85cba34266cU, 0xbd7f8ec1bcb021c3U,
  0xba797564bbac2b2dU, 0x3cd87e10bbd2d806U, 0xbc7f437dbd4a9d52U, 0xbb49039fbd91f57eU,
  0x3c17f088bd28b594U, 0x3c4ddf4bbbfd9870U, 0x3c8642f3bd58a453U, 0xbca55e0b3b79976bU,
  0x3d0cf949bd45d1e0U, 0xbd1dcdbdbb633b6cU, 0x3db56565ba889842U, 0xbc9d4409bd0a257eU,
  0xbc1a522d3cb60624U, 0x3d2f599fbd5472c6U, 0x3ca4be68bd33c87dU, 0x3c2cf176bbae6f53U,
  0x3ce70f883b1292abU, 0xbd7ec9cabbc30ec4U, 0x3d4ea7ccba87777cU, 0x3c02689c3c8facbeU,
  0xbd20a3e53cef912fU, 0x3c8bd2c4bc42a62fU, 0xbc63d177bd1849f3U, 0x3d827f403cb39486U,
  0x3ceef658b9aee3b0U, 0xbd0602003d2dd773U, 0x3d1ae707bb18e6b6U, 0x3d60a86c3d0903e7U,
  0x3d64567cbc2c5403U, 0x3ba912283d51116dU, 0xbd11b7203bf70657U, 0x3d90a4abbca9a497U,
  0x3afc48883d91f51eU, 0xbc4669d63c832032U, 0x3bfea3f9ba471523U, 0x3ca934a3bd03ba1fU,
  0x3cf0111a3d6ddd9fU, 0xbc2f325f3d42f3b0U, 0x3c8abcaf3d96c6bfU, 0x3d13190b3d50dca0U,
  0x3d3e11f03d80c1b2U, 0x3b8e64f23d3191e3U, 0x3dc87c6f3c3b2240U, 0xbc3d2d7b3d0383f0U,
  0x3c8842be3c2ada66U, 0xba695ca13ceb9f58U, 0x3c5a2c20bcae352eU, 0x3d8f80e73d09611aU,
  0x3c2fd7793d568229U, 0x3d4bee723cfbbe64U, 0x3d95505f3d24cc90U, 0xbd182ae4bc4e9c22U,
  0x3cad2c7c3c0439c5U, 0x3d6bdfba3ccd3cdcU, 0x3cdd2cef3d04b892U, 0x3d6891873d700f12U,
  0x3d47a08d3d9a70bbU, 0x3d873e14bd0ee9efU, 0x3d4482023ce379b1U, 0xbcaf5db13c245c6aU,
  0xbc348312bd2a1413U, 0x3c2d71683ca70539U, 0x3db7f265bc97c803U, 0xbc27633f3c311d96U,
  0xbc9e12b13d80b80aU, 0xbd19caefbc37db01U, 0x3a84e43ebd57ddd9U, 0xbd051681bda460e0U,
  0x3c81e9b43cbc9b2bU, 0xbc22d50dbcba3984U, 0x3d8e680ebb8831b8U, 0xbd782af0bba4a5a9U,
  0x3ba82f3fbd39636bU, 0xbd352fdcbcb5ef2cU, 0xbd4638e6bd00201eU, 0xbbd99953be28ca26U,
  0x3cfccaebbd6239ffU, 0x3d80e3b1bdc05f04U, 0x3c35c4f43b52e991U, 0xbd359e77bd05cd2cU,
  0x3ceeb07fbc0b4dc2U, 0xbcd50e243daea924U, 0xbdc84f6bbd599e54U, 0x3d5ce832be238d56U,
  0xbd163d5e3cbbd893U, 0x3d5cadc0bd2fab43U, 0x3dc34db2bc966551U, 0xbd61f1ce3c21f70fU,
  0xbd0e97a73b6f932bU, 0x3d1a8ddd3d9ad873U, 0xbe0ddc0ebad34d7cU, 0x3d206220bd1e7b0fU,
  0xbd3a84063ccc2f77U, 0xbb3e3a6fbd85d356U, 0x3d8fc6c13d2fa5a7U, 0xbe270a3e3a8dfc0eU,
  0x3b6ae81a3d36a81eU, 0xbc551e0dbcac5e3cU, 0xbdadfa013cf47d90U, 0x3bbc28e7bd7126ccU,
  0xbd698fde3d05ccdaU, 0x3d809a12bc2711efU, 0x3cceebf73c110c63U, 0xbe08a8f0bc31b921U,
  0x3cd7ad1abc1b950fU, 0xbb193d91bc095d6dU, 0xbd735ebb3c441426U, 0xbbc26cd2bb76e9bdU,
  0xbd678b363ca93021U, 0x3d408a44bc30bd4eU, 0xbbb1bf993d310645U, 0xbc1acef0bd139079U,
  0x3cd752af3c4656b1U, 0xbc503e093ca11404U, 0x3cc10db53cd11befU, 0xbc85afd73d0f0996U,
  0xbd1e5510bd1a722eU, 0x3d4ed36b3d029b56U, 0xbd065eb7bc946c6aU, 0x3da4916c3c89550fU,
  0x3c4227383c718836U, 0xbd02e238bc42f040U, 0x3d3fda573ccdd3e6U, 0x3d1c4644bd32167bU,
  0xbd46308d3d24122fU, 0xba29d561bcb86b63U, 0xbd9969b6bce6f962U, 0x3d1a4d0a3b021904U,
  0x3cff6b9dbcc7ded0U, 0x3d82ad193d688f61U, 0x3d51fd763b0783cbU, 0x3db2695e3ac7ecdcU,
  0x3d9884ab3b94b44bU, 0x3d294abb3d1a20a9U, 0xbc4d959e3c7bdad6U, 0x3baf43ee3d995c4aU,
  0x3d3918943d6e9fe5U, 0xbc56c396bd1a0bf4U, 0x3db328d83d4fc687U, 0xbc39e688bc93bea0U,
  0x3b83ca353bf8be88U, 0xbbe98e773d1f80f8U, 0x3c894d5dbb4515c2U, 0x3dc0f9e33d6ef55cU,
  0xbc20a86b3c42c57bU, 0x3d27fe0fbcc9a20fU, 0x3d853ea73c9aac44U, 0xbd2074583be354b8U,
  0xbc93a67b3cc3edffU, 0x3cfb4c613bf98d49U, 0x3d229502bbbb7167U, 0x3d6d36c93c8492c8U,
  0x3b79ba7bbc20fa3cU, 0x3d38b1f43cffe8d4U, 0x3d950672bd714127U, 0xbcffe116bd08dcc2U,
  0x3ca7d0dabcf9d2d9U, 0x3c6cef413b2ba330U, 0x3ce22bb43cc308b2U, 0x3d1ba3113bd358e3U,
  0xbd61acbe3d97eaaaU, 0x3b161910bc05c725U, 0x3c834449bd2e0e34U, 0xbc949bd6bd6c4f19U,
  0x3d09290cbd0829aaU, 0xbd4bb1493d17abb1U, 0xbd3b9c3abb548dc0U, 0xbd534589bd05f445U,
  0xbcb0ef993dc558c4U, 0xbcef45db3d963b08U, 0x3b9f4205bcb75c5aU, 0xbc0c708ebdcc3de2U,
  0xbb7c2229bcfdbf79U, 0x3d1f72893d3a38a3U, 0x3cbfbee8bd82fd38U, 0xbdd91f4e3c7a443cU,
  0x3db4760d3d3dfb2dU, 0xb9b5c5da3cfcfca6U, 0xbd0059ebbb370c03U, 0xbc363f0b3ba49784U,
  0xbbb662993b8198c1U, 0x3d7569663b6e525dU, 0xbc8943a1bd08156aU, 0xbd991ac13bcd6ff2U,
  0x3cc2a4183d02d381U, 0xbb2f6b733cc5fb85U, 0xbda3783d3c09d028U, 0x3d40768539886333U,
  0x3c0f68053d0b9d2dU, 0xb9254776bd1efff9U, 0x3d11a8453c7aa733U, 0xbe21170f3c89b83bU,
  0xbc8708c43b6c49b0U, 0x3d0e88323d5232b9U, 0xbdbf3e5b3c845b6dU, 0x3d3939ba3c3ae2b6U,
  0x3c99864e3da0d46fU, 0x3db6ba9dbd17d810U, 0x3c1616be3c8c2d76U, 0xbe27631cbd0cf8d0U,
  0x3d60ffd73d776bd4U, 0x3c42fedbbcfd767bU, 0xbdce955bbb96aeeeU, 0x3d8057c53d9493daU,
  0x3cf7432fbc9d491eU, 0x3c9fcc2a3d889a02U, 0x3b82c0ed39011a68U, 0xbdad4ebebcaa1a4aU,
  0x3d0a1f45bd4b9d90U, 0x3bb20fffbcc09137U, 0xbd9bfb6f3b505274U, 0xb864d22c3c7fa8eeU,
  0xbcb98f3fbd7e7086U, 0x3d2f760a3cb78dddU, 0x3cb6f210bd34a666U, 0xbcbbe68bbcde96aeU,
  0xbc53403bbcd9f239U, 0xbc2b77ecbd9ad024U, 0xbd292245bcccffbcU, 0x3b95c548bce475f8U,
  0xbd4c7e76bd437e3dU, 0x3cceceaf3c43c634U, 0x3bb9bd9cbd81f944U, 0xbc92fa97bcbd49ddU,
  0x3d6422bfbb56516fU, 0x3ca0dea93d77e651U, 0xbbfe26773d1bca6cU, 0x3bced3d2bd598dc4U,
  0xbc2e00443d934570U, 0x3d85228c3d6fa6a8U, 0xbbf465bbbc872435U, 0xbd1914023c72a8c2U,
  0xbcab68063d98e030U, 0xbd340ba0bb6d0803U, 0xbd877cc7bbe699d7U, 0x3caba36d3c5ab97cU,
  0x3b0cd7d43cf41228U, 0xbc5b651e3d9b0096U, 0xbbab42923d41841aU, 0x3ce85d91bc4eef89U,
  0xbb95d8f4bc62ce24U, 0x3c92c34dbcde17f0U, 0x3b7d4ac33bf6a004U, 0xbcc54249bcb0fd7dU,
  0xbab1e437bd44a84fU, 0x3d24c930bcc5e2b6U, 0x3be1be26bd5b7d27U, 0x3d8b39933d3b59a8U,
  0xbcd364683d2010c6U, 0xbc99ed243d136e89U, 0x3d50640c3ce61df9U, 0x3ce28974bc51f0adU,
  0xbd03cde3bd304d2eU, 0xbcde0ee5bc3dcbcaU, 0x3d4a35f2bc115136U, 0xbbf573b9bd640e1aU,
  0xbc8395f03d7ff0bdU, 0x3d24b60fbc90a01fU, 0x3c229348bd1eb013U, 0x3c958fc43c671a36U,
  0x3c045cfebca4f7efU, 0x3d89e283bd5d77a3U, 0x3d6d5fedbcb60b11U, 0x3cc991123c869963U,
  0xbc7e6e023d36965cU, 0x3cd5309c3ca56b32U, 0xbccf0cf03d8ca100U, 0x3cdd06debdab4566U,
  0xbc0e67af3d8dc908U, 0x3d87b6ee3cad8851U, 0x3badc1ccbca47854U, 0xbd0175e5bca95795U,
  0xbc7cdf3d3d21e5f8U, 0xbc0fca683d348668U, 0xbde4d0c23cda7ef5U, 0xbcc9f223bd8f7a2cU,
  0x3d7e586d3d9ea647U, 0x3daddfb73d9fea50U, 0x3d8f2543bc32a9f9U, 0xbded3bc2bb4052fdU,
  0x3da6477d3da738b9U, 0x3c1d58053d9b5701U, 0xbdf5c43a3d766bfeU, 0xbd0dae713d77bfbaU,
  0xbd420ab13d7efbb9U, 0x3cce31e43d344673U, 0x3d83763e3d57e965U, 0xbe150ad43d27a6aaU,
  0x3c791d283e1d7d45U, 0xbd06167f3cacd401U, 0xbd48f8b13d878ae9U, 0x3af44f023e35ad8fU,
  0xbd79b5433d0abea7U, 0x3b70391fbd00ccd5U, 0xbd25630139b134c0U, 0xbd5add95bcc4ddecU,
  0x3d8936e73c699c07U, 0x3c8f23213c17fcf2U, 0xbd518527bc330a36U, 0x3b7e1b8b3e037767U,
  0xbc4610403caa1ef6U, 0x3d344677bcde1574U, 0xbc45679b3c9cc331U, 0x3aa43d893b6cc6beU,
  0xbd0bd117bda8cc48U, 0xbd3589c23d8faa43U, 0xbd1588613ba04125U, 0xbc949bbb3c872781U,
  0xbcd8445bbcc048b3U, 0x3d9ee337be06e57fU, 0x3d1f4d353d4f157bU, 0xbd376f3fbce9999cU,
  0xbd806042bdaf94a9U, 0x3c8e6c403bd58643U, 0xbe07e700bb98ec72U, 0xbcffe31dbcd64372U,
  0x3befe105bd9fd341U, 0xbd034451bae93d7aU, 0x3d9321223d911595U, 0xbdb177b5bc8454e8U,
  0x3d781c9d3bff5acbU, 0x3d0214fb3b17a803U, 0x3ca251d53c08cb77U, 0xbcac7704bd543e5eU,
  0x3cd4a2a53d318f8aU, 0x3dbac481bb6e59daU, 0xbc12aa803d4d6be5U, 0x3d754be13d84dc3fU,
  0xbd499dcabcdb633eU, 0xbc52125d3cf2703aU, 0x3b87c4763be1df17U, 0x3d914be53c59a606U,
  0x3da4565ebda1f560U, 0xbd87bb383c58266cU, 0x3c9e78a63c90e23cU, 0x3ba32d7a3cac5e6aU,
  0x3ccc628dbc217b7fU, 0x3d882ccc3bef2a27U, 0x3bfc2b063bdb295fU, 0xbd418d99bd02bdfbU,
  0x3cfc5fa73aac24bcU, 0xbd7803b13d0444deU, 0x3da725febd1bda79U, 0xbcf29fdabcb35545U,
  0x3d0cdfb13d832ebbU, 0x3cdae3c8bbdaa7c3U, 0x3be04cc2bd0ff116U, 0x3c260c41bd3f32ecU,
  0x3d414ebfbd0b4167U, 0x3c7c79e83d18a4b4U, 0x3dad7d523cd47dc2U, 0xbb2c3475bb816f2dU,
  0x3d4da5973d9dc6a8U, 0xbc34f6953d49cf33U, 0xbb873fab3cd73664U, 0xbd29030fbe6236edU,
  0xbd1f7600bc9287baU, 0x3d0fc2e93de0854aU, 0xbc5bd2763c6865d8U, 0xbde1de20bd14fadfU,
  0x3d624b1a3d384ebaU, 0x3d7aa5df3d7427afU, 0xbd1d80603d69ae96U, 0xbbe31008be12e194U,
  0x3cd0d6cc3cdadd6dU, 0x3df8e5f83d016856U, 0x3d3f6cf73ca79acdU, 0xbd85b81b3dacca9eU,
  0x3d96a8073d4a809fU, 0x3ccf239e3dc7c7ccU, 0xbd6c68a93db66da5U, 0x3d99d4febe1a8bc0U,
  0x3d6ea32d3db61e12U, 0x3dbaec053d9bfa3dU, 0x394294393dc3d532U, 0xbcc821cc3b731cf1U,
  0x3d81b8d13dd57180U, 0x3d4593473d57a6e2U, 0xbdb7cdaa3d16effdU, 0x3d970951bd6bcf45U,
  0x3cb19cdb3d6023c0U, 0x3c2291c33c94c09fU, 0x3ca8ca8f3d35a101U, 0xbd98d2e93d28700bU,
  0xbd4475243df16ac0U, 0x3d107489bd93432fU, 0xbd6130d8bcd17d49U, 0x3d6841fe3e13aef6U,
  0xbcce409c3cc9f884U, 0xbd9c029cbc2aaf75U, 0xbcef71f43b902ed8U, 0xbd83a7843cbf4d24U,
  0xb99a4c8f3d0fcf93U, 0xbda21a5dbd557969U, 0x3d50b5d8bc6da2cbU, 0xbc2e3a253dd9690fU,
  0x3b4a950fbd349f99U, 0x3c1e8b8bbd42da7aU, 0xbdd62f5abc96b635U, 0xbcf5d90fbd361227U,
  0x3d3e0a0fbcfb9015U, 0xbd90f6673d76fe14U, 0xbd496bf63cddf559U, 0x3d23dbdebc353099U,
  0xbd5b3ab43c9220eeU, 0x3d705896bd83095eU, 0xbd08da5c3c2c0261U, 0xbd4fd36d3c38c0f2U,
  0xbb578a58bd934483U, 0x3d713199bd0ee982U, 0xbdd48a16bd5bffdaU, 0xbb796f603be78831U,
  0x3c2b8aa23c1ad6d7U, 0x3ce21596bd88aefeU, 0x3d35469e3d836464U, 0xbe210c0abb99442cU,
  0xbc6a217b3c9a9c16U, 0xbd4420833c8c3ca1U, 0x3ceb02d5bd164faaU, 0xbc323e09bc9654beU,
  0xbd2cea9cbc46692cU, 0xbd20f9083c8dec1eU, 0xbd77c310bd24c81fU, 0x3bd24ffc3c87df6eU,
  0x3c245169bd0051f2U, 0x39e8d329bceed0b0U, 0x3a3f2404bc7c45d8U, 0xbc870622bd4d6b89U,
  0x3d2154f83c6a5978U, 0xbce4b21abd0c6442U, 0x3d078e83bc850c67U, 0xbcb56d1bbccb6807U,
  0x3d5ff9b83db4ca36U, 0x3d4a0b643d2d2213U, 0xbd072fc9bc4f16abU, 0x3cba8c00bd884818U,
  0x3d000f4c3d1dba7fU, 0xbba2a32f3d878adaU, 0x3c047e543bef2aa0U, 0x3baa8988bd2bd9c0U,
  0xbc6072403dc40e2bU, 0xbc86b02a3c2124f9U, 0x3d577a7a3d4309ccU, 0xbc9a465dbdc3d3d8U,
  0xbc10398b3d6cd346U, 0x3a7b38013c8f3547U, 0xbcf23b903d25b2f9U, 0xbc18bf9c3c6179e0U,
  0x3d052f6d3d3432acU, 0xbcac8ce6bca33a8bU, 0x3c1b86653d2630e6U, 0x3d40556cbe160906U,
  0x3d3dac9b3d7700b9U, 0x3d8898cebc2ec298U, 0x3c10758bbc933908U, 0xbd1eb63f3b6c0304U,
  0x3d8809013d10f5b0U, 0x3da2655b3d82180cU, 0x3dbc83603db69b3bU, 0x3c272439bd51994eU,
  0x3d9786683dade0baU, 0x3dd5b9ca3dc7568fU, 0x3d2f31473d80f00eU, 0x3b3dd46f3b118770U,
  0x3d54d290bb6e4564U, 0x3d4e962f3d9ec7f5U, 0xbc81c55d3d3d3364U, 0x3da5343ebdee59f6U,
  0x3cb36cae3cf82ae4U, 0xbbe7bd933db954abU, 0x3d1c63833cd34892U, 0x3a5ba5cd3d0a742dU,
  0xbd524f743da94774U, 0x3da64328bc245a49U, 0x3cc3a0f33cab6643U, 0x3c5cd327bd370167U,
  0x3b7d01993d169fa9U, 0xbcf08e6e3d8861a0U, 0x3d928e5e3c7d74b7U, 0x3d7ee2033cbab3d9U,
  0xbd10aa363cdc55e8U, 0x3d1dd939bd753484U, 0x3dc5230ebd5a770bU, 0xbce35d71bd55170dU,
  0x3d2ba9493af302f8U, 0xbcd3b5783cf92856U, 0x3cd231f23bb81d62U, 0x3d86a11f3c1c9a77U,
  0xbd5b75be3bc2b32dU, 0xbd03048dbd80ae60U, 0x3cd05d5ebae0be1fU, 0xbd8b6bf0bd057768U,
  0x3c26c10ebc5eb34fU, 0x3b867ff63cc0c9f0U, 0xbca4835bbd2beb51U, 0x3d9cf8ca3ba57dfbU,
  0xbc9f03a2bd754e34U, 0xbcd1c279bbae83d1U, 0xbbc2a14dbcd8e2feU, 0xbc12f35f3cfa0b69U,
  0x3d251239bd60841eU, 0x3d08ae5dbb1a0e99U, 0xbcba2f56bd75d4a8U, 0xbd427e51bd3cd17bU,
  0xbcaa7b48bc3d7f00U, 0xbca4cc92bd71f6f0U, 0x3cbea4003c993bdaU, 0xbd09697ebc9fe02cU,
  0xbd2a10e2bd29539fU, 0xbcd0a0c73d5f172aU, 0xbc3372373cf03c95U, 0xbd12984fbd0a1846U,
  0xbd622ebfbc8e9e5aU, 0xbd4a0887bd13fad2U, 0x399df533bd2b9784U, 0xbd597b123ac59395U,
  0xbd7b420cbd240c07U, 0xbd8951823c953e86U, 0x3b26319ebd8d904aU, 0x3b429277bd592866U,
  0xbc5e809f3d297b3cU, 0xbd86ae9c3cf21eaaU, 0xbc84dff6bc0fac7cU, 0xbd6654eebc371cddU,
  0xbd70dcb43d62fafaU, 0x3ca5afa9bc02ddbbU, 0xbdda5d553b415769U, 0x3d2260f6bbced52eU,
  0x3d4ca7ae3d786839U, 0xbd430b433d125ebeU, 0xbd5618f03c8b2471U, 0x3d43ca41bcac4680U,
  0x3d0062bb3d41cf4dU, 0x3d18d6e4bd32ef6dU, 0xbd69f8be3d0e7440U, 0xbbd456b33ca2b1f0U,
  0xbcc2d8a1bc421e57U, 0xbdaf46f2bcb624b2U, 0xbd91131c3d3eab43U, 0x3c5e29493c7bd178U,
  0x3cfd445cbc185debU, 0x3ca0c5e8bd8c0c2cU, 0x3b93037fbcb8e55dU, 0xbd4bcbef3d47d762U,
  0xbcd959a13bb7679fU, 0xbdbb21fb3ce4f918U, 0x3d45a4cb3c81a5e2U, 0xbcf40ad73c8ba223U,
  0x3d1443a53d856303U, 0xbc5ee349bdd1194cU, 0xbcb8efb03c014512U, 0xbbd140843c403b93U,
  0xbc52f868bc5dc5e5U, 0xbd02fc543d0bc02cU, 0x3d465bbd3b6f5cc0U, 0x3cbf97afbd0202d6U,
  0x3ce5bb6e3d9152ceU, 0x3dda0fd0bd6e6812U, 0x3c80a48e3c97f0efU, 0x3d7cad373d0ca579U,
  0xbda6d6dabe0b7e12U, 0x3bc1acb13d7449efU, 0x3d639b19bc7630c1U, 0x3d8a4df9be152804U,
  0x3d4c25cabd996998U, 0xbb914af0bd4d90faU, 0x3ba363e83d2557c0U, 0x3dccff8ebcaecfc6U,
  0xbc849f54bc06906aU, 0x3d83de813d5599ecU, 0x3d68a5353c9512c3U, 0xbc81d4d3be4af73bU,
  0x3c5cc6aabcb0da73U, 0x3ca8f4393c3d5893U, 0xbc7977883c0d8163U, 0x3dbcbe443c3287b6U,
  0xbc5c5031bc14d3f3U, 0xbc9a6a8fbc78373dU, 0x3d1979c83aff2f00U, 0xbcf216c7bde73250U,
  0xbcd9107cbd41129bU, 0xbc1bd72cbb02f24aU, 0xbb6278c6bce28d6bU, 0x3ac815d83c68b2b1U,
  0xbd24d4ed3d190dfdU, 0xbb965eef3cd0387fU, 0xbcaee159ba90292cU, 0xbcfac3fbbd241139U,
  0x3c4fcd083cc3d74cU, 0x3d5063e33d5ece35U, 0x3d156f383d2e1e5eU, 0x3d2a528d3d3af1e2U,
  0x3c8b3ac2bd4c1a99U, 0x3d185c6b3cfba55aU, 0xbd84db943d10b1e7U, 0x3ce2f5b1bd797e41U,
  0xbd0a678abce3d9d7U, 0x3bcaeb333d078a3dU, 0x3922f5943d15220eU, 0xbd25fe013cf06769U,
  0x3ca5028cbcc24495U, 0xbc26bf713c770497U, 0xbd8d8b0abd849e08U, 0x3cff40b53cc9e237U,
  0x3c59b2d9bcdaef26U, 0xbd08403ebc029a68U, 0x3cf672f73cb7a07eU, 0xbe0e63e8bc2637b7U,
  0x3c4b6dc53d7fa2ccU, 0x3c9425a938fc373cU, 0xbdb0711d3b5e3f44U, 0xbcb78ccd3cf18214U,
  0xbd3b1f45bbf85957U, 0xbd7dd36b3cb99e1fU, 0x3d0fa7dcbce09895U, 0xbda9598bbd641d60U,
  0xbd1a76da3d0a385aU, 0xbd398751bd8b6f36U, 0x3c04d4f53cb83273U, 0xbcae2d90bd0c0023U,
  0xbc030318bcc19ba7U, 0x3b3c702bbba1d41cU, 0xbd08f9a6bd35bb1cU, 0x3cb8f1313c9543f8U,
  0xbb1d5fbd3d56d3beU, 0xbc5a37173cbed624U, 0xbd371413bc429581U, 0xbd6e9fcdbc73c89cU,
  0xbd01a3403d368221U, 0xbcc9dc6a3bd38bafU, 0xbd1cc153bd11213aU, 0xbccfd2783b8f9e39U,
  0x3cb3093ebc662ad2U, 0xbd8689a23d5821eeU, 0xbdfee6a5bc191c6aU, 0xbc72f72ebc537d60U,
  0xbd5f4cf1bc8a0377U, 0xbd044671bd080539U, 0xbb6e7b193c919c1aU, 0xbe2f7d41bd091707U,
  0xbcb12a563d21a91bU, 0x3c2a1d0eb8ba4ff4U, 0xbd92fc6fbd8beabaU, 0xbd894bd1bd8ef957U,
  0xbcbb0512bc4c8eceU, 0x3b96bd8dbd0a72b5U, 0xbd0ffe2bbd8fc621U, 0xbd3a1033bd6f2e4dU,
  0x3bd05326bccfa212U, 0xbca8f5613c8df42cU, 0xbbd9d582bccc79d5U, 0x3c927024bd5bef90U,
  0x39e577b53ccc52c3U, 0x3dcfa6f1bd6558e2U, 0xbd2d3d3ebd3a9c40U, 0x3d37efbc3ccd3043U,
  0xbb861c68bdeb3cf7U, 0x3c7240853c9079feU, 0x3d9a8ce5bd053793U, 0x3d111e97bdb79582U,
  0x3d93328fbd10c126U, 0xbc1ea93e3c573240U, 0x3c79653b3d27abaeU, 0x3d713665bc3b0badU,
  0xbd7bca26bd8d5844U, 0x3d9210bebc2f9afaU, 0xbc1b4b75bd57ec54U, 0x3c653a80be6782abU,
  0x3d6402473c87fa9eU, 0x3bff14743d83a556U, 0x3d52fafe3d589369U, 0x3d5fbfeebd4122a6U,
  0x3c624fc8bd271f49U, 0xbd1e54c83cf47ee9U, 0xbb0a4fcd3ccfc0a9U, 0x3b8d2a01bdd4932aU,
  0xba83ec8839e47179U, 0xbbb3bd893c3e88dfU, 0x3d0aadb2bd0b53f7U, 0xbbb96e51bcd9a068U,
  0xbc05166f3b1131b9U, 0x3d7c35d4bb43eb7eU, 0x3d146c8fbb51cfcfU, 0x3d0d7176bbdfcca9U,
  0x3d252e6a3cb8c864U, 0x3d1ee3d4bccdfe82U, 0x3c9d8dfc3d3a213dU, 0x3c9a7529bcd3630eU,
  0xbd46a483bdccc0a4U, 0x3d4e1f393c72d6afU, 0xbd03b3c9bc72f0dbU, 0x3d0bc2fbbd445123U,
  0xbd1547a9bc80a468U, 0xbc1fa04dbc6ddebbU, 0x3d204fbf3d61e9e6U, 0xbd3b81583cb28460U,
  0x3d0a59e8bde0c7deU, 0xbd131cf5bcc43dcfU, 0xbd2e479cbca3d01dU, 0xba955d83bcc4eaaeU,
  0xbccc23aabc5f940aU, 0x3bee3054bd17e010U, 0xbc550d00bbb5fd4eU, 0x3d00e6c1bd230570U,
  0x3c31722f3bc96805U, 0xbd2993bcbb27b6e5U, 0xbd8048143c8a59b2U, 0xbca055ecbd19af8dU,
  0xbcd9c04bbc16ce05U, 0x3d1138cf3d82e1dcU, 0x3d49ae613b65ab30U, 0x3b01cb5b3ceeca0fU,
  0xbd27a3563d09a377U, 0xbd0d5195bcf60549U, 0x3d283dc73d1b36f5U, 0xbb5beef43c7ff28bU,
  0xbc4619f7bd3bda9cU, 0x3c76a5383d78eeadU, 0x3d2a6ab33c102098U, 0x3ca481093d2eca7eU,
  0x3d15c59c3d699f4aU, 0x3bf13c803ccf3194U, 0x3ca8763bbcf1f889U, 0x3d60a7eebda0335cU,
  0xbc86d949bd52f619U, 0xbd0e8d1c3d27ba9eU, 0x3d8ed0a93c80ea70U, 0x3d27fe72bc975aa5U,
  0xbd5b1f89bcf2a8e5U, 0x3c2cff4ebc15b8b6U, 0xbd225cb4bc28e744U, 0xb7a66bf2bdd3f5f3U,
  0x3d02d09abd3a6dbaU, 0xbd20ebccbd37a600U, 0x3d6c317cbd0f9030U, 0xbc280941bd4b2432U,
  0x3c9e97663c2c561eU, 0x3d495872bc890c09U, 0xbc81a608bd0174b4U, 0xbd2adb74bdb92b70U,
  0xbca62630bd785b92U, 0xbd954c863ca93549U, 0x3d0df2383c36bc9aU, 0xbcfff0e5bd411fb3U,
  0xbcad3c323c0706e0U, 0x3c7bf1293d1d793fU, 0x3d0a3c143d0ee091U, 0xbda5c984be46e2d4U,
  0x3c8d480bbcfee68aU, 0x3d0855b4bce2650bU, 0xbd221c32bc80d572U, 0x3c1df7e03d198518U,
  0x3b930e50bd58b7a0U, 0xba4c7f613d80bff0U, 0x3d59da87bb4a672eU, 0xbd276210be302b04U,
  0xbca7b3223d3d19d3U, 0x3d00b718bd32465dU, 0x3d5178e8bc265b38U, 0xbc1bb51abc49c8afU,
  0xbcb1e5b5bc0df185U, 0x3b5f98fd3c18ebc2U, 0x3bfe24d4bca85e99U, 0x3c91707ebd8ded2eU,
  0x3ce1943cbc204230U, 0x3c2bfdb1bd8b1794U, 0xbcddd9c33cfff5dfU, 0x3cb925513d75fcedU,
  0x3c8d9a49bd9c1841U, 0x3c60fe613c8385b1U, 0xbd2a6b8bbc296b2bU, 0xbd3d512cbd04ed41U,
  0xbcdec9003cf67a6aU, 0x3cb97361bd5b1bcfU, 0x3c84e4733cdeb7eeU, 0x3d511a2fbd2ee2a8U,
  0x3d92f8bbbb1f7090U, 0xbc8c7bb53d0147daU, 0xbd70e36ebc02ab39U, 0x3a0fb8fe3d195e39U,
  0xbcc07de6bcbba7c9U, 0x3c8f1722bd5f656aU, 0x3d050b7abc8c6e3dU, 0x3d1c175f3c798fbeU,
  0xbbe88afabd2b5096U, 0x3d869d103d49c73aU, 0xbd9a6e233d54cb6eU, 0xbb867b76baf0e88fU,
  0xbd8637e43c2e8bf4U, 0xbd187840bd906fb7U, 0xbcb33e06bbe3bcb9U, 0xbc074ee4bc70e774U,
  0xbcb39edcbd9c445dU, 0x3cbd21d1bd807a39U, 0x3c93bd77bd237db8U, 0xbd052bf13c43ed97U,
  0xbdac87dbbdba99f6U, 0xbc32d53cbda3d65aU, 0xbd63a335bd12fbd2U, 0x3d2229bbbcfe400fU,
  0x3d36a1283d5ca1bdU, 0xbbe3583abc551219U, 0xbc7d77533d0597d7U, 0x3c8011a8bc9562efU,
  0xbb064f933cba03e5U, 0xbc8d7ae6bd0acdd6U, 0xbce2ab823c5c0a3cU, 0x3c9e8d48bd054973U,
  0x3d96eaae3c9ef39aU, 0x3c7c5f08bd31e280U, 0xbc4a5bc2bd884e7fU, 0xbd2415bbbd185f5bU,
  0x3c9f87ad3cd63800U, 0x3b1fd982bda12f48U, 0x3d1bd9213d4288baU, 0x3d1464bfbd02e6d6U,
  0xbbf70102bd0f8b7dU, 0x3d25f9e0bd178c18U, 0x3d3f82613d49f7ceU, 0xbc16ec7bbd7b8c5dU,
  0x3cdebfc23b95d530U, 0xbd24801e3cf94e77U, 0x3d5cd8cf3d0e93b3U, 0x3cf69b35bcf0fbdfU,
  0x3ca1e74fbc8476e4U, 0x3d83468e3cd7dc2fU, 0xbd8090a9bc982f19U, 0xbd61d1eabceb98c2U,
  0xbceb892e3cf102a1U, 0x3c22f5f03d900bddU, 0x3cec5827bd0ec31eU, 0x3cc22b783c867f7eU,
  0x3d8743b43d7a100aU, 0x3d85c2ab3d003ba7U, 0xbc286a1ebd32ed65U, 0xbd16fc6fbd960ab1U,
  0x3d18e9acbc16c99bU, 0x3c4e27d03cced724U, 0x3d87a587bd44222fU, 0xbdb0f6a5bcd7ac1dU,
  0x3d7f63e93c6e9f89U, 0x3da80095bbf1990bU, 0xbcefbcf9b9c1db23U, 0x3c51f9debdc57f9cU,
  0x3d15d7793c07184cU, 0x3d4169843d6b406dU, 0xbc3a4bfcbd58009aU, 0xbd261614bd3a849dU,
  0x3d46f08b3afdb55aU, 0x3d83134c3d8b36ccU, 0x3c205166bd146357U, 0x3ccf2577bb77fb97U,
  0x3d2b4dad3d3abbeaU, 0x3d67665b3c2014b1U, 0x3c57905dbd1d5e88U, 0x3d78ea92bceb9563U,
  0xbae6d41e3d8e44f0U, 0x3ab1d5d8bba82f9dU, 0x3c682b5fbcd09847U, 0xbbbb7b883cc9a91eU,
  0x3bdf093a3cf1a394U, 0x3d8667adbc6fb2d1U, 0x3b296f11bd61730bU, 0x3d8fe6b6bd3dde3bU,
  0x3d5b17863d68bf53U, 0x3cf3aa2f3d961679U, 0x3cc0f0863d832735U, 0xbd4fd12a3c6eb9ceU,
  0xbd5e1b423c9ce144U, 0x3c89faa5bc8ae791U, 0xbd7c93adbc9770deU, 0x3d5633f83d230355U,
  0xbcca8d48bd59c46aU, 0xbd136d693d2094a4U, 0xbc8a406e3d198982U, 0x3d21e1613c7d7ba6U,
  0xba3b9edbbc94598aU, 0xbcaab629bd5b9fbbU, 0xbbf13b783d554e7cU, 0x3c0597393d4a9c31U,
  0xbcb86189bd2efdf7U, 0xbc1e38cfbd0b8a97U, 0xbcc1f1313c0dc8e5U, 0x3d3a8ba83c0ae206U,
  0xbd581144bc0ccd15U, 0xbc896057bc52a1a6U, 0x3c6caf7dbc8089e3U, 0xbd54aa1cbd4ed02dU,
  0x3b3dbf8dbd14acfeU, 0xbc1125dbbd886024U, 0xbde14c96bdfdfebeU, 0x3c44261ebd122b49U,
  0xbda539cdbd537314U, 0x3c13b1b7bd6abf82U, 0x3ca25999bc9180fcU, 0xbddd6791be00f55aU,
  0xbdf7b943be2c77ceU, 0xbd0bf2efbc918e49U, 0x3d2be9adbd5498bcU, 0xbb91508bbcc289e2U,
  0x3d29fe4cbd0a09bfU, 0x3c863fd5bd2d0fadU, 0xbda316d13c3ab1a5U, 0x3d3c98693b1df101U,
  0xbd6aaf77bdb9dab7U, 0x3ca197e8bc4f93d8U, 0x3d49acd13bb328aaU, 0xbc522f8e3b02e123U,
  0xbc01ccb53baf9598U, 0x3d2ac238bd8021cfU, 0x3c00a1fabd41376cU, 0x3bccb3a0bd121343U,
  0x3c84f88fbc4e0e95U, 0xbcbf2c2a3d808e2bU, 0xbb95d79cbc8de22eU, 0x3ca7db8cbd0af239U,
  0x3d6d922fbcd29933U, 0x3c2281cb3b9c8878U, 0x3d36dd7dbcd127beU, 0xbc8983d43c9a5693U,
  0xbdac8cd6bdbb3f9dU, 0x3d72f0dabcb5ebd1U, 0xbcd471c63cf2873bU, 0x3d4e84f83d0ecafaU,
  0x3d0da126bd00e384U, 0xbcbcd9163cc2ef3dU, 0x3d07891d3ac9a4d6U, 0xbcdd6e153add80a9U,
  0xbc430886bc888704U, 0xba8985afbca176b4U, 0x3ba580963d90a995U, 0x3d917765bcce5d8aU,
  0x3d0373763d83fbfcU, 0x3d1c6a7f3c0b5d33U, 0x3c28aea9bc9fa443U, 0x3c770f173cdb43bbU,
  0xbcace47b3d3f3327U, 0xbcdbc2fb3d67ffdaU, 0xbd1ce95cbb5a5228U, 0x3d2694a93dbe6e17U,
  0x3c2e70483bda8e47U, 0x3cd53e9abdc50b8fU, 0xbd8a68763cc2e617U, 0xbcd73b193d1dec8dU,
  0xbd884b833cfdbea4U, 0xbbf0fb103d10516fU, 0xbc8f3d32bcfde0abU, 0xbcd846033d6aafc4U,
  0x3ca43eb7bc124ddcU, 0x3c43e3f2bd4e167aU, 0xbc04e2bebd448431U, 0x3cc7afc3bce195f6U,
  0x3cef1dde3d110a72U, 0xbc9f7f36bc5685acU, 0xbcb7853a3cd97ac3U, 0x3c8a02e83d85380aU,
  0xbcd392333d143c51U, 0x3d9fefa1bcf8f162U, 0xbd332296bcd5edd0U, 0x3d0a31efbcf31ba8U,
  0xbd8f97d7bd5e4488U, 0x3d83f45ebcc8f335U, 0x3cd2bc763aa610a2U, 0x3c9c312fbd3c81a9U,
  0x3c99e332bd9d5ea6U, 0xbca8dff5bc60f94bU, 0xbc2f3edebd6cebeaU, 0x3d497c66bc8f9080U,
  0xbd4f80f3bc96418cU, 0xbc91786abdb15037U, 0xbac97ccdbd9970c1U, 0x3c27949f3d021896U,
  0x3c86ff5cbd7ef82fU, 0x3b5579dabdb82ed8U, 0xbdd08f25bba1238fU, 0x3be892dbbd8101c5U,
  0xbdc039debc8e59b1U, 0xbd31be7bbb480c0dU, 0x3b3eda7cbd919050U, 0xbdf13ce63d4b9aafU,
  0xbcc72b83ba502767U, 0xbdaa1c9fbce0fe3bU, 0xbd879274bd84fac9U, 0x3cf9c1c6bd8ab0beU,
  0xbd0286443d509ae1U, 0xbcb7a95cbc980953U, 0xbcfad7adbd921212U, 0xbd2777ef3cf05dd1U,
  0xbc9e518c3c6c4adcU, 0x3ce1fa68bd1139caU, 0xbd7593b8bd906c7aU, 0xbd917a08bdcc9364U,
  0x3d1e86873dc7efd6U, 0x3b30acc23d4a01e6U, 0x3c1e78953d45be6dU, 0x3d8a72d2bbe0bc49U,
  0xbd0f0f303d777b98U, 0x3c230c9b3dc6ac2bU, 0x3bb501db3bba92b9U, 0x3cce99d8bcf1f75eU,
  0x3df416983e036511U, 0x3ccdd46e3d1c69b9U, 0xbc1ba2fb3cf16328U, 0xbc9505333d89e469U,
  0xbc2a46933d483ef3U, 0x3d004e8a3db9ae8dU, 0x3cd70cd63c026354U, 0xbb93dce93d09d3e7U,
  0x3cb131a53dc4ff02U, 0x3c65d2843c50513eU, 0xbd0e19353d908afeU, 0x3cc07745bc96354fU,
  0x3be70aedbc37614eU, 0x3c8d914c3da2a7e7U, 0x3dead6e23da5ec71U, 0xbcf89aeebd247189U,
  0x3d5527033d8a3b6aU, 0x3d818be23cad563bU, 0xbca49afbbc842968U, 0xbd681d9b3d3072f5U,
  0xbd73a53c3c303681U, 0xbc7b19763d6783a0U, 0x3dd3b5e63d4d79a3U, 0xbd345905bc8de99bU,
  0x3c84be133d5cfdf5U, 0x3d2143c63a9892dbU, 0xbd12f71b3da3c0a0U, 0x3c48ee213d0dc865U,
  0x3cd534543d4feaf5U, 0x3cdb76973c2cc575U, 0x3db4a306bd3c5806U, 0x3d7ab98e3adf8680U,
  0xbd4cbefe3ce9e43eU, 0x3d90c0783d3f8277U, 0xbdb7c3a4bcf31c2bU, 0xbd4d09473dab1833U,
  0xbd4db127bc0f2648U, 0xbce0ef5ebcdc8877U, 0x3d8cf8a93c8424d3U, 0x3be7679bbca64203U,
  0xbd29cf14bd4d8637U, 0xbd53dea5bd954536U, 0xbcb4487abc2b28adU, 0xbd6637a83da5eb03U,
  0xbdea1ed2bbe73ae6U, 0xbda298f63d0218e8U, 0xbce89de03b3979a6U, 0x3c26671bbd8ce85fU,
  0xbd1d886abd8723e4U, 0xbdeaf0f4bd31daceU, 0xbd57b5f5bda47c38U, 0xbd8efe013d702310U,
  0xbcbe62593bea2d4cU, 0xba463251bafa1b61U, 0xbe02f4ebbd260b17U, 0x3c8a9bd9bd69f39fU,
  0xbd908dc0bd5d68b9U, 0xbcc4ac423d59305dU, 0x3db76e3ebd5e4bc7U, 0xbced8f523d1fb74eU,
  0xbd027a49bdab7711U, 0x3d6aa6ccbda34456U, 0xbcd31892bd57a2b1U, 0x3da252e7bca753a0U,
  0x3d13e975bd9b47daU, 0x3cda53373cdb636fU, 0x3d8407b43d24b022U, 0x3d2141d5bbc06d5eU,
  0x3a9509dfbcf8a964U, 0xbbe2d0e03d1370c4U, 0x3cd859ae3cb3eb99U, 0x3daa30f13d803253U,
  0x3cf3d9413d45dcceU, 0xbcb34dbb3d9f35a5U, 0x3d8b9a943ce5fc97U, 0x3cc749c53ca4ab65U,
  0x3d80ee9a3d8493a9U, 0x3da862dd3d7bcb55U, 0x3c6883aaba01a4a1U, 0x3ddc6d9cbc86b81dU,
  0x3d9e116f3db32c49U, 0xb936b2e33d889a3aU, 0x3d85aad73dd965b8U, 0x3be290793d6bcc93U,
  0x3cbff71b3dbf19d2U, 0x3d60bd4a3d8ba426U, 0x3d9c697f3d991f61U, 0x3d55c2fa3d45ef42U,
  0x3de2c3a93e4b8a5bU, 0x3d8f20563d344004U, 0x3da656fb3db1b466U, 0x3d58f679bca5391cU,
  0x3d7b9fda3e12e521U, 0x3dbf0cbe3e24c4f6U, 0x3cc92d5f3c3babdaU, 0xbc6e87923c2cfbfbU,
  0x3dd01d4c3e1d1fcfU, 0xbd375ba23dda247bU, 0x3da433253bbce2a2U, 0x3d678af43bb47effU,
  0x3d5a2f663dbcd125U, 0x3dfc59f13e011da5U, 0x3dd10a3e3d4be8dbU, 0x3da8c8a2bb465516U,
  0xbd99e8643c8dc9ccU, 0x3d9d54e73be94cf9U, 0x3ca0a2a0bd341083U, 0x3c564d5c3d8ab998U,
  0x3c823004bccca564U, 0x3cc6f913bc51d721U, 0x3e1ddf103da611f7U, 0x3cc1903e3ce05542U,
  0x3d1438febd666e67U, 0x3bdbc9243d144660U, 0xbdf4656cbd06f86cU, 0xbc051c41bce8b0abU,
  0x3d30752ebc47c898U, 0x3d6db3eb3bfb96ceU, 0x3dd66a133dbb545eU, 0xbe0486c53c245c50U,
  0x3bfd16423c5d79baU, 0x3cf999203d7b87a2U, 0xbe119ea43b11bf19U, 0xbd871971bbc1e9c4U,
  0x3d526e243caaaa21U, 0x3e04c43fbbf47ca9U, 0x3e08f2303d06b324U, 0xbe5d9574bd5395b2U,
  0x3d478a0bbcebd1ffU, 0x3d0a3aad3d66878eU, 0xbe43340ebc533174U, 0xbd6a32563d7fda5fU,
  0xbbe37f4dbd43a746U, 0x3c887351bd5c1c50U, 0x3de9aae83cdfcc29U, 0xbe46ca6abc70f558U,
  0xbcd74370bde90c73U, 0x3d0271e53bde4031U, 0xbe11b3833c09134aU, 0xbb5161e03dab42b2U,
  0xba9444b6bcaf2d09U, 0xbcf76c7cbc4ab267U, 0x3d4ac8893d360632U, 0xbe881daebd15911aU,
  0xbccc45bebb9cca30U, 0xbd85e82abd73c1e9U, 0xbda62f09bd7792f3U, 0xbba099d63e12108dU,
  0xbd1161a1bd61e02eU, 0x3cb1d1f1bc8652c8U, 0x3b5d5386bda36eeeU, 0xbd450e40bdbdb604U,
  0xbb6d36573d4134c2U, 0xbc6a37693d4e2509U, 0x3d0c9aa2bd21f719U, 0xbdcec9e33dde68cfU,
  0xbc882de43d420eb0U, 0x3a2743f83c8ed037U, 0xbcc4a4d4bd8b8b94U, 0xbd848110bd89189eU,
  0x3b0fbfa43dcaf7b0U, 0xbd2659563d597a47U, 0xbcd0b0603d7f5499U, 0x3c3430f83d4f3291U,
  0xbca05791bc1957c9U, 0x3d56b5823ca536afU, 0xbc463a203c956231U, 0x3d10d0aa3c78e9a4U,
  0x3d2f31ef3da3d2e0U, 0xbc9b6e753be29e83U, 0x3c3372103d172dd9U, 0xbb1c3b7f3d422c20U,
  0x3bf34acd3d30118bU, 0x3c9b61a1bc4d1d90U, 0x3c8097623c87c414U, 0x3c98e6bd3c40b70dU,
  0x3be2d142bd08805bU, 0x3d081e4b3d3172ecU, 0x3de8fd1f3ce733c3U, 0x3ce062913d7cd919U,
  0x3d09ccffbd9119d2U, 0xbcab98c33d31f9f1U, 0x3c6a649e3c44467aU, 0x3d19eb4d3cd72715U,
  0x3d7580563dd8ae17U, 0x3c79a1743d784afaU, 0x3d95df103caf854fU, 0x3d99fd2e3d27e977U,
  0x3dab75413d802f36U, 0x3d91cfd83db9567bU, 0x3d81b87e3d1391aaU, 0x3d99e0753d6f9ddbU,
  0x3d24ffba3d4799b3U, 0x3d3b99fa3d5dde9fU, 0x3d996aed3d963d10U, 0x3d1de4213d4681cdU,
  0x3d93097cbcb0ae15U, 0x3d2ca0903d226780U, 0x3e20d1a73cfd72eaU, 0x3cb389393d2ec08cU,
  0x3c8c70ebbb9a7cdcU, 0x3d5244efbd152680U, 0xbce8a910bd25d513U, 0x3d4d57bc3d347f0aU,
  0x3da029fabd3c7826U, 0xbc674aa73bbc99f7U, 0x3dd1d8933cbf025aU, 0xbd0af6e9bcf9f2a7U,
  0xbd55e796bd87af0eU, 0x3daa22f23d4ec8b4U, 0xbdd5930d3d68d163U, 0xbd9195883c7bac52U,
  0x3ced7b7b3cb26ea5U, 0x3d57cd2abdb7ae74U, 0x3df28dd6ba0284d3U, 0xbddf6f29bcd842eeU,
  0xbc3a4a7cbd65d403U, 0x3d28ce283d30b2d0U, 0xbe16a520bbebecb1U, 0xbd81fc393d10c5c1U,
  0xbc4df6a0bcdc9d3eU, 0x3ca95ecebdfdfba1U, 0x3e5db8b63d739f90U, 0xbe4454b13b155366U,
  0xbbd6d4b5bdd6a08eU, 0x3d1b62d03dccacf1U, 0xbe4b8097bc078188U, 0xbd009fbb3da5644dU,
  0xbc9fe73abc7b730bU, 0x3d593df5bd362e2bU, 0x3e2570953d965e4bU, 0xbe6d8249bd3c2e34U,
  0xbc556fbebdd76e57U, 0xbbdad03f3d26b8ccU, 0xbeb1349b3d888fb5U, 0xbb4cd8993e4bd2f7U,
  0xbd93ec60bc94c861U, 0x3d040c3bbd986e36U, 0x3d56e5cf3d28de70U, 0xbe82a7233cd5aa78U,
  0x3d5730313c5a10d2U, 0x3d58e663bcd5bb9aU, 0xbe7431033d06735bU, 0x3b9036f63e8a9b8dU,
  0xbd0ea4723da64707U, 0x3dd27a5e3c586d33U, 0xbae6ca1cbd418b72U, 0xbe8745ecbd05d539U,
  0x3d40d98b3df876bcU, 0x3c6e986b3d6271feU, 0xbe6693f0bd006708U, 0xbd8fa4f23d5379d3U,
  0x3c8c42d53d97d9a4U, 0x3e2a75ec3c8d8340U, 0xbd04e9653b3bb4b0U, 0xbd991be6bd65ccfbU,
  0x3d2644443dc6d8e3U, 0xbcbd2e133d54a7a8U, 0x3c469e003d636608U, 0x3c6d1ab83d5c15c2U,
  0xbcd864f23d33199aU, 0x3d024bfc3ca3a83fU, 0x3c51480ebd5f612cU, 0xbd74c70ebc6e5b4fU,
  0x3c37ef073ccfa44bU, 0x3b8575b4bc787cbbU, 0x3db4f810b931d2abU, 0x3d562d0c3d8f2261U,
  0x3cf02d4abc7a73ccU, 0xbb0fcb8e3d031a19U, 0x3d66551c3c21ca96U, 0x3d24d5cebc14e54aU,
  0xbd3fac9ebd3c7280U, 0xbc6771ed3c335207U, 0x3d9432dbbd5eeef4U, 0xbd0601773daf37f5U,
  0x3d74d4ebbd2064b8U, 0x3d01384ebd9dff9dU, 0x3d0c4eb83c8507adU, 0x3d5408bebd0ddac6U,
  0xbc96c2d3bc89a6a7U, 0xbd46888f3d91a00aU, 0x3d14f5243ce65ee9U, 0xbd53e1b23d81bc7dU,
  0xbd5f4cf1bbbd5de2U, 0x3dad324dbdec4bdaU, 0xbd6a1e413d4393f4U, 0xbbaba6adbb44b3c8U,
  0xbd94ec1bbd93d570U, 0xbb607bd03d282cecU, 0xbbbfd91ebd231786U, 0xbd550a763d00b727U,
  0x3d5a1dd6bd1c69eaU, 0x3d10fac0bdcbccbbU, 0x3d7f69e3bd38306eU, 0x3ce210873c188b40U,
  0xbd9ae7d6bdf599a5U, 0x3d99e131bcb0a5feU, 0xbb80b2643a440186U, 0xbb2f90833d78d5f1U,
  0x3d1dadcabd2ecf6dU, 0x3cda7583bd1a4d68U, 0x3d8443c63d73e8d2U, 0xbd068f0fbb966449U,
  0x3cf29e57bd114a85U, 0xbc000536bb9211f8U, 0xbd3cc76bbd46901eU, 0xbca4640dbcc021e6U,
  0x3d135ead3c999904U, 0x3d595a8cbd0ec21aU, 0x3d923c36bce0ec42U, 0xbdaf956cbd5b956cU,
  0x3cc595c0bdc4b646U, 0x3dc830ab3d95076aU, 0xbdd0e1133d3fd615U, 0xbd35ef153d622082U,
  0x3b994564bb41e5dbU, 0x3d71de40bdc9a96aU, 0x3dce57073d09c920U, 0xbe41b7283b8d843dU,
  0xbcad961bbdb24e73U, 0x3df269ca3d191b6cU, 0xbe28efa63c51470fU, 0x3ca3f6b03e3d647bU,
  0x3c89fd4f3c6be9b7U, 0x3d88a3c5bd0f3fecU, 0x3dfa56753d8e29afU, 0xbe23e34b3d58f7c5U,
  0x3d897a1d3c862df6U, 0x3d514ed43cb41ee3U, 0xbe45d981ba673314U, 0xbb837e1b3e6151fbU,
  0xbc50085b3c4785bbU, 0x3d7e66e33ab91514U, 0x3c9efd363d77993fU, 0xbe80ba203b3f8524U,
  0x3d5121ef3cba050fU, 0x3c6130cebbd2df40U, 0xbe7e2d963d28e0dfU, 0x3cdf40383ea845fbU,
  0xbd10360a3db74691U, 0x3de864efbd16ff40U, 0x3b6fbe1dbcc22acbU, 0xbe3bfb61bb3a8ae4U,
  0x3dad85f8bc751044U, 0x39d3417f3d0d931eU, 0xbe5a72f13d0c8740U, 0xbd02c7bd3e1cb420U,
  0xbca704d83dbae76eU, 0x3d839476bd9a5c18U, 0x3c546f1dbd30194bU, 0xbdd3806a3c11b9d5U,
  0x3bfed8683d51f09cU, 0xbd3129523b22e0e4U, 0xbcfdda773d831f3aU, 0xbcc185ad3d966b4bU,
  0xbd486c383caf0103U, 0x3d44cfc8bcb56ebaU, 0xbd20a5c9bcda6eb9U, 0xbd574311bd5b1af1U,
  0xbc4f0e45baa6c416U, 0x3c8344773c9a37aeU, 0x3d504d02bd3ad11bU, 0x3d2576bb3df96bd9U,
  0x3c219b893c97f05fU, 0x3c88eb08bc32994cU, 0x3d33c184bc5871c8U, 0x3d49df3e3ce12518U,
  0xbdbcfe9fbcdd434cU, 0x3cbfd1a2bdd8f6a3U, 0x3d778b2fbd915c16U, 0xbd54e1123c8da08fU,
  0xbd493774bd638105U, 0x3c481238bdbcf6b1U, 0xbc5bdf85bcc49bffU, 0x3d56c653bdd47d44U,
  0xbd5c56dabe1b3c3dU, 0xbd818f17bca32c9cU, 0x3cdd5f88bd4e6963U, 0xbd952b453bfc8421U,
  0xbdbced1bbdf66169U, 0x3a519e54bda72743U, 0xbcb5ec08bdc7ef3aU, 0xbd0090b0bdacafdbU,
  0xbe0232fdbdea0d93U, 0xbda59ecabd254c96U, 0xbd20bd5dbd9dfc17U, 0xbd3e32b73d9c6ef1U,
  0xbd73a066bbecb419U, 0xbb0a1171be1cf882U, 0xbc895900bd0d346dU, 0xbd3e8628bdb5757aU,
  0x3c2f6277bdd2ad2bU, 0x3d003b16bc1d129eU, 0xbcdd8bd6bd20b844U, 0x3a3b1a023dbc8cccU,
  0x3c280d893ccf6df5U, 0xbc629ad4bd94d187U, 0x3c8972653ba4bd58U, 0xbd80c967bbc797afU,
  0xbd15e9f23bcfb374U, 0x3d9909673c59ef8aU, 0xbd022a8b3d5eafcfU, 0xbbd301ff3a8fbbc2U,
  0xbc8075843af18424U, 0x3d2ccfbabbb1e860U, 0x3dc8ba783b7b128aU, 0xbd94746fbd4a9038U,
  0x3d744f90bc8db779U, 0x3dc5af4e3d1541f7U, 0xbda9d6ea3b798413U, 0xbcbc48e73a854973U,
  0x3c88ac953d0c28afU, 0x3dedce603ca131afU, 0x3df2afaf3be9b1cdU, 0xbe108dcb3c429332U,
  0x3dcd66483cbdfae4U, 0x3a3a08eb3d562d14U, 0xbe29471d3d87bf08U, 0x3d08f1b63b9b121eU,
  0xbbe675c73d3cf57bU, 0x3cfd61ce3c6960a2U, 0x3c81532a3c948366U, 0xbe4a6fa23db758abU,
  0x3d5496e53e089228U, 0x3d78827f3a2d54f8U, 0xbe1a7be23b4fe30bU, 0x3da16fe63e5e79a8U,
  0xbd4e03873ddeed0dU, 0x3d8407683da4fad9U, 0x3d0e94e23cbbcd51U, 0xbde916b63bac5060U,
  0x3e0585c63cc3eb68U, 0x3cb2230dba42ad21U, 0xbe38dc1e3da16aefU, 0x3d9feec63d9ca1d9U,
  0x3d28d3553dea2d09U, 0x3d3ed72d3d14478dU, 0x3d74c21c3cb6fb90U, 0xbdee5937bcce495bU,
  0x3d2a92da3d68d69dU, 0x3d955c0abcca23f5U, 0xbdfd59303cabba1fU, 0xbbcb519b3d1827c5U,
  0x3c90e4453da02f76U, 0x3c39b1283d051641U, 0x3dd064043d5ab30cU, 0xbe29bda23c15a708U,
  0x3d7ad7813d68ecd1U, 0xbb124dfd3d714588U, 0xbde75b78bc37785eU, 0xbc07397839db1a4eU,
  0xbcbfd826bb0a3b10U, 0x3c99671dbd2094f8U, 0x3d60eb7abc69bd6cU, 0xbdd40b633cf493efU,
  0x3c2bf94d3d95a1cfU, 0xbbbbd6623bcbec5aU, 0x3c84e0573d0ef040U, 0x3d3e313b3d90d32dU,
  0x3ce5356f3d5fe47dU, 0x3bbe417f3c918783U, 0x3ce7eea23a29645aU, 0xbd591535bd10c2beU,
  0xbcef62fcbd97303aU, 0xbcee663cbd711054U, 0xbd1c249ebd8b2e45U, 0xbc5ee0f43d8e880fU,
  0xbd3297f0bcfa69efU, 0xbd4941703bb44af8U, 0xbd5f474fbdab4c09U, 0xbd8d07c8bd885ac3U,
  0xbd753989bde050afU, 0xbd713864bd306f2fU, 0xbdebbfcebdb3313cU, 0xbe000daa3d7b6b5bU,
  0xbd242fa8bdd641c5U, 0xbd2511d8bcf350dbU, 0xbccea10ebc7ebd0bU, 0xbc8f663bbdde4a29U,
  0xbdc1b1a2bdf4aa8fU, 0x3ce344e6bc1a3a8dU, 0xbd2f4a4fbd0dd0a0U, 0xbd05c26b3cba0fcbU,
  0xbde09a323cfd89a9U, 0x3c9f8ad5bd54779eU, 0xbc969a3cbd2e919dU, 0xbd5f9dd9bc1ae997U,
  0x3d3b2acfbd0aac85U, 0x3d49a9503d97fc22U, 0xbdb99ec53d3bd00bU, 0xbc9bbdf63d85f89aU,
  0xbca9027e3cec17b9U, 0x3c9531c4bd142407U, 0x3d8639333d7a4d34U, 0xbdf15be03c069bf7U,
  0x3d492ada3cda98a2U, 0x3e0f5fd53d0157b9U, 0xbc4f5e1c3ca41742U, 0xbb8e7595bd0356b7U,
  0x3d1e15d5bcbe89a9U, 0x3d9253ec3d3c29faU, 0x3d7528323d841841U, 0xbdd136073daabcb6U,
  0xb98a845c3ca15ed7U, 0x3da8dc753d12c37eU, 0xbbdbed1e3b961628U, 0x3cabeab8bd980dd9U,
  0x3d568c203d922510U, 0x3deb40783d0b3226U, 0xbc65edcd3ced2f9aU, 0xbd106ecd3c84afa3U,
  0x3c598f103de92e0bU, 0x3d721a283cddad29U, 0x3b60ea563c680645U, 0x3d5cfc84bdb5cdefU,
  0x3d9a18713d7caba9U, 0x3d883f373d91e9dbU, 0xbcdfa3ea3d8ab92aU, 0xbbc8b8963db8d348U,
  0x3d5f271ebc04a7adU, 0x3bb1ceffbbfce12cU, 0xbd2592bc3d92f134U, 0x3cd012303db7ebcbU,
  0x3b39b30b3d94b68eU, 0x3cd223e53d924ac0U, 0x3cd13c9d3da28cd8U, 0xbdb8bb903dbb7fe4U,
  0x3d2e383c3b800166U, 0x3d9048503d9a018eU, 0xbdf4950d3d8d03e1U, 0x3da5dd7cbdc629f1U,
  0x3c1758003d9ce856U, 0xbbba28fe3d87e033U, 0x3d838ec33dbd4b5aU, 0xbe0cabcc3d9618ccU,
  0x3d49f3613c51c64cU, 0x3d864890bca0211aU, 0xbd37f848bbb37171U, 0x3d1bcf34bdabff74U,
  0x3ce719bc3dc46df9U, 0x3d8a44b13dc48060U, 0x3df778773d3b044cU, 0xbdf1133e3d230f12U,
  0xbc4abdffba0e0e3aU, 0x3d97bb083cb17e4cU, 0x3d41d9b93c84f1f2U, 0xbd1ca91a3d36b2bdU,
  0xbd09555e3cb97e87U, 0x3d41984bba7d69a6U, 0x3dd975c9bd32ddd5U, 0x3cc51d933c0720e5U,
  0xbc8f1003bd1d7009U, 0x3c9dce85bdade3f2U, 0xbb40d5763c304aaaU, 0xbcba66dc3b801a20U,
  0x3b140f7fbd887b7cU, 0x3a226570bca6a4f5U, 0x3d59249dbc728bbbU, 0xbd08c664bd37e852U,
  0xbda92cc6bd36afe1U, 0xbd11f1c2bde3d39fU, 0xbdad1619bd470bb4U, 0xbd82ac4e3d0c2ab9U,
  0xbd89f1bfbd8210a3U, 0xbb548493bcc5015dU, 0xbcda94bebc12b698U, 0xbd0154febda49fdfU,
  0xbde80c96bdc636c3U, 0xbd252f6b3c71fd67U, 0xbdb9d5c3bd444d5eU, 0xbd22f1e13d236acbU,
  0xbc5b744ebceb4981U, 0xbd96b677bda811d0U, 0xbcb63f673cfc5543U, 0xbddafeacbbda69c0U,
  0xbd54d42cbd4e6caaU, 0xbd60482abd3d7f46U, 0x3b0f8f9ebd60d3c3U, 0xbd811bea3d175ce4U,
  0xbd5b0eaf3baae3dfU, 0xbd5e0cb1bd465979U, 0xb9d5de383b8be214U, 0xbd6ab703bd9494e7U,
  0xbcd9050bbbff4a06U, 0xbd3536903ccd17c1U, 0x3d9487a1bd05c245U, 0xbd3c395cbd1afff5U,
  0x3c0d0ae2bcb934d4U, 0x3d224d14bd29c73dU, 0xbd2f7cc5bd00bc2fU, 0x3d34f10b3d638abfU,
  0x3d1862e63d14adb2U, 0x3aa7db62bd0515c7U, 0x3d8f08773c9df1d4U, 0x3d4feebf3ce676c3U,
  0x3bf9bf4dbc0290e6U, 0x3d24d64fbd65b2deU, 0xbd41eaa7bb4a222aU, 0xbc0ea7efbb23774cU,
  0x3d6d8c31bd81ba42U, 0x3b39198e3a623b9aU, 0x3d6209d03d96fd4bU, 0x3c727fa23d872fcdU,
  0x3d2f88e4bcd34b0aU, 0xbb80f363bcbd47a2U, 0xbd21becfbc2d130aU, 0x3d95904a3c89e0e8U,
  0x3ca5f167bdbbf45bU, 0x3c659ed13da254a1U, 0x3dfbae913d929e5aU, 0x3b482b05be038ca7U,
  0x3cefd0bdbbf98ff5U, 0x3dae8320bdba211fU, 0x3d49e4d33dafecc2U, 0x3debc5983cf068f0U,
  0x3c0cfab5bdb98f2aU, 0xbc207c983d06fd0cU, 0x3d76a1523d50adccU, 0x3d2f3ac73e1e2052U,
  0x3d0f027c3cf4d85fU, 0x3d67059fbddcc336U, 0x3bf2f0313d630a26U, 0x3da3f4ef3d200ab2U,
  0x3c2f9ca8be33cad8U, 0x3ce28ecd3d7f8ff8U, 0x3c67b8073cb817a3U, 0x3da71c9e3dbfaeabU,
  0x3cd3ebcabc3a518fU, 0xbd64029ebe2d68b4U, 0x3dc6cdab3dd2a05fU, 0xbdd877a0bb420638U,
  0x3c8deaeabdfcdb65U, 0x3d91e5143be13e04U, 0xbcca9d33bc1f2308U, 0x3c93a04d3da6c92fU,
  0x3a945b9fbcda6032U, 0x3c06b33abde514fdU, 0x3d593d053c3cfe2cU, 0xbb4d8722bce3c630U,
  0xbdaa5ca5be18ec64U, 0xbbeb7c55bd0341dcU, 0x3e17d1bebd2c7d78U, 0xbd0726d03de752e5U,
  0xbc7450cfbd720849U, 0xbd1d97cabdd759a3U, 0xbcc2c991bd9f378aU, 0x3e3980c93c980e94U,
  0xbd51c9ecbd4e2fc4U, 0x3cfffee43c227fbcU, 0x3da629edbd1d0819U, 0xbd9c125f3d193dd6U,
  0x3bb0b2ddbd879ac6U, 0xbc359d02bd190b6fU, 0xbb3e1954bd41e3e6U, 0x3d111c2dbc8b98ffU,
  0xbdc61341bc8be2c8U, 0xbd7bf901bd3c3bdaU, 0x3d15bbb2bd4d7762U, 0xbc724dc53d8c9d38U,
  0xbd8fb9ecbda3cb9fU, 0xbc26df34bc4dc398U, 0x3c2f9821bd94a3a5U, 0xbd1716aebda832feU,
  0xbd877cb2bcff17ddU, 0x3ac0a531bcf796b2U, 0xbce78c92bc57da3bU, 0xbd2833bf3d784a04U,
  0xbdad36a9bdc0402fU, 0xbd642bb6bca8089dU, 0xbc8ab3f3bc9d827eU, 0xbd38d322bd85657cU,
  0xbbb9c40a3c3c9b94U, 0xbdb582afbd49de17U, 0xbd61eebdbccea382U, 0xbca6681d3a4b76fdU,
  0xbbd6d9c7bd2630d2U, 0xbc3d0f16bd96047aU, 0xbe116960bdeabd4cU, 0xbc8cbffcbda61f61U,
  0xbc0a96f7bcccc765U, 0xbdbb020bbd9f53cfU, 0xbd6596283c0f2c76U, 0xbd1f810abcea00adU,
  0xbd79fa543a55c668U, 0xbc965c523bb34dd2U, 0xbde521cbbca84a38U, 0xbcba79a1bd8848eaU,
  0xbcf0fa12bc6f7a0bU, 0xbd6cfef13d236360U, 0xbd72b045bd0ebca6U, 0xbd823cbb3dec6fb6U,
  0xbd77c4f63c23d4c6U, 0x3d778a553c096d8bU, 0xbdfd06f53c9449fcU, 0xbc84763f3c3c021aU,
  0xbb0664a6bd8fb716U, 0xbcc4a3eb3d2619a1U, 0x3b350fc63d45e8a6U, 0xbca88abb3e049776U,
  0x3c01988b3d72960fU, 0x3b1dd6c6bd8c113cU, 0xbcf1d57a3d0d030aU, 0xbcc70ef53d414d28U,
  0xbd59de96be3aafb7U, 0x3c8975b1bcab9426U, 0xbbbd3480bc832bfcU, 0x3d46ddfe3c2af3fcU,
  0x3c4b6efc3ce46429U, 0xb9a4db28bdfd288eU, 0x3a8b45babc06d2f6U, 0x3ce27c703d3d6aeeU,
  0xbd3b291abdfc5e4aU, 0xbcbcfe1b3d3660adU, 0x3d18cb023d4bfc5bU, 0x3d1a8abf3e864062U,
  0xbc8d4f93bc2d83efU, 0x3c3da15ebd36ad11U, 0x3d08fe383d95da06U, 0x3dd7a55a3b97a62cU,
  0xbd4a1638bd8cd1c4U, 0x3cf6da533d0e273bU, 0x3c6d9a603c97c4aaU, 0xbcd5d5293e230c6eU,
  0xbd1d777f3d3c067dU, 0x3d5322f5be09d557U, 0x3ad8828e3d9eef5cU, 0xbceb73b5bd22bbd4U,
  0xbdbf60fc3ce42b70U, 0x3d0f42963cb6197cU, 0xbca6d259bdc05690U, 0xbd6c8be33e21df92U,
  0xbd82b7acbd07f452U, 0xbd19b107bdaedf25U, 0xbd01abe9bba0b35cU, 0x3d36abeabd5393d0U,
  0xbd66849dbb3efe73U, 0xbda39f0cbd5d2ec8U, 0xbab3b798be026625U, 0xbdc56f2a3d305f5dU,
  0xbd32f24fbc2361d4U, 0xbd7eff4ebd52a799U, 0xbdcaebecbdf84155U, 0x3a42104dbd8d6d26U,
  0x3c80c8863da14b68U, 0xbdddb2c03ca4b45fU, 0x3ce5a4e3bdbfed5dU, 0xbdd38352bbc3b1ceU,
  0xbd70fbcbbce88b62U, 0xbc787e15bd473ed0U, 0xbe279b69bd530df5U, 0xbcfa29dbbdaccf6dU,
  0xbd0da97f3bc80e42U, 0xbcce3d9ebcce6a81U, 0xbdb3b9dd3a6f1154U, 0xbdbd5ec23c5f747aU,
  0xbd012540bb873d24U, 0xbcb861b6bd6e7ec1U, 0x3c833971bc711646U, 0xbd8c5215bd88de02U,
  0xbcf986593d776955U, 0xbd8229fabdb05d52U, 0xbd535c77bda618f3U, 0xbd0c6c14bcc7f446U,
  0xbd0151663cb90884U, 0xbd8ad1afbbdc8e1eU, 0xbddad728bda15baaU, 0xbd2f5c92bd93f0d1U,
  0xbdab3ec23c5be62cU, 0xbcb5fed5bdc3197aU, 0x3bd0081bbd8a6cb6U, 0xbd5019ff3b403bc5U,
  0xbd0cce553c190ee4U, 0xbd9967203d493b03U, 0xbce76ac1bdb8baa9U, 0xbc904f5abc22d1b0U,
  0xbc9629b8bcf581ecU, 0xbd31610a3a1ad569U, 0xbd0076813c593356U, 0xbd912de23dc14379U,
  0xbdbbe3a6bbd3d0e1U, 0xbd478a3bbd7ee5e7U, 0xbe08aaf2bd38638fU, 0xbd0f71883c44b280U,
  0xbce56428bd37217bU, 0xbc67158bbd32fa78U, 0xbc7131453d24c665U, 0x3cb626843dc9c915U,
  0x3c8474c93d74aa43U, 0x3cf0f718bc171c65U, 0xbd783df4bd8e0e7eU, 0xbda92bf73c97f3ccU,
  0xbc76206fbd89da06U, 0xbd0e47a73d55f583U, 0xbd3fb8fbbb8e4ce5U, 0xbc06d6c93e5f641fU,
  0x3c7876383caa7336U, 0x3c657516be034d0aU, 0xbd860039bcd37851U, 0xbdac275a3cb8a3a1U,
  0xbc33c430bdfc8467U, 0xbc0d931b3be52a5aU, 0xbb42cc923cbb1698U, 0xbc42affa3e503fb7U,
  0xbcd3497eba414055U, 0x3c56180ebe235c95U, 0xbcc351e43d36c77bU, 0xbd8cc8d4bca21d3bU,
  0xbd8ba0aabd301460U, 0x3cd72f59bd4fe797U, 0xbd0cc78bbcf87c8cU, 0xbc8d25c73e88164aU,
  0x3d3f343cbd7bf593U, 0xbd59c4a5bd9e55e5U, 0x3ca2c2673d1781c7U, 0xbcb03b103d47a34dU,
  0xbc7c5d79bd9fcb0eU, 0x3ce942cfbd246d62U, 0x3c522c5a3ce120d6U, 0xbd1715423dd46a05U,
  0xbc24a783bd1a3a03U, 0xbd55b667bd824c51U, 0xbd793b07bc053ad3U, 0xbd5b143c3c746a17U,
  0xbdb78aa3bd2b3aefU, 0xbcbae36cbb9d173bU, 0xbdbea060bcb6fce3U, 0xbd95504e3da33ddbU,
  0xbc9585d3bde4907aU, 0xbd4643d9bd5d018aU, 0x3cac04493ab191feU, 0xbcd5df6dbc990064U,
  0xbd9b6c773c933509U, 0xbd626838bdd8f882U, 0xbd49c194bd619730U, 0xbd1537183d610391U,
  0xbd870dcdbbd5ab83U, 0xbd1e2d36bd706a64U, 0xbd9d7110bd8a23a9U, 0xbd37a5aabdc26ecaU,
  0xbd1597c3bc964d32U, 0xbdd25d2fbccd693eU, 0xbe0115b93c0a076fU, 0xbcf2cd713d50cf9fU,
  0xbda7a6edbd01d012U, 0xbd3afad0bdcced2dU, 0xbe158248bcdf410eU, 0xbdfc17cdbcc46fd8U,
  0x3cc5b266bd0547a2U, 0xbd6e0b69bcb0884fU, 0xbcde3506bc4c757aU, 0x397f6206bc43692eU,
  0xbb7e9310bc450710U, 0xbc1e7e1ebc10a353U, 0xbb4a4dbebd8e93a6U, 0xbd322044bd02d3a9U,
  0xbd73e7933d77092bU, 0x3cc288b7bd1f2784U, 0xbc8f893dbc3c3ecbU, 0xbd2460f73d2da538U,
  0xbd00e2833c382e42U, 0xbd87db96bcfcdd6bU, 0xbd40c639bd046552U, 0x3d20fce1bd05eaa5U,
  0x3c33fe4fbad540c6U, 0x3d0ad6593c1770acU, 0x3d2015fbbcf88ea4U, 0x3c9f11473d8af0d6U,
  0xbd26135ebdab13a1U, 0xbd0362043c3e70b2U, 0xbd7a41ffbd9403daU, 0xbc8fb23f3ab1b06fU,
  0xbcbcd0cbbd28fbe5U, 0xbda416be3c67a706U, 0xbd7f6dcc3cb19d64U, 0xbad2727f3d47299bU,
  0xbd9845933d3c0fd9U, 0xbc31c8ebbcdaef9bU, 0xbdd97dfdbd6e2e4fU, 0xbc9559adbd5d1d8dU,
  0xbcb46048bc2e50e1U, 0xbd08ed1e3c45d8e4U, 0xbd813ea43cdeb9afU, 0x3c3479f73e064ea0U,
  0xbd23840cbc95646dU, 0x3d443fefbd21edd4U, 0xbc5bcde53c64ecb9U, 0xbde7ce27bcef103aU,
  0xbc25b85dbe010bc9U, 0xbddbcedebd0c93aaU, 0xbd8896fd3cc115b7U, 0xb9de85773e8cde71U,
  0xbd4c93a93c110b67U, 0x3b58f61fbe290fefU, 0x3c79791ebd667b7fU, 0xbdfe7593bb84e00fU,
  0xbdd7f2f4be0729cfU, 0x3b9a1b63bd089588U, 0xbd342f613a8011c8U, 0xbc38a6013e4e5495U,
  0x3c380af0bc9683b7U, 0x3d36d2f4be08ff4cU, 0xbca6a8743cca5d80U, 0xbe0cd570bcb140dbU,
  0x3b55b3f5be233aacU, 0xbbebb31bbd32670cU, 0x3c1251a7bd4e10efU, 0xbcbce5e23d3bebd3U,
  0x3bd87701bce464a8U, 0x3d2553d9bdda09eaU, 0xbca7985c3d1241aaU, 0xbc904bbbbd3c9d46U,
  0xbdd3ad57be329b5dU, 0x3c64c4a8bcaf1270U, 0x3c4f39473c48d10aU, 0x3d4afb4b3d4b85e0U,
  0x3cd77f61bd8a57b8U, 0xbd320502bcdbf8bdU, 0x3c14482b3d5beeceU, 0xbd2346f03bdb8ecdU,
  0x3c4dbf60bd652c58U, 0x3d8ba9f13b1ae7e5U, 0xbe049494bcd86a67U, 0xbd799c89bdad3cdbU,
  0xbc9bf0f9bd81524cU, 0xbd7688c03d0792b2U, 0x3d9f06c5bc34a082U, 0xbd98a9503bc34342U,
  0xbd90914c3c89f7a6U, 0xbba44cd63c19ed31U, 0xbd66ae1ebaa02438U, 0x3c73654ebd0a973eU,
  0xbc3e8d08bd3ffd15U, 0xbdfcee673cf80a0aU, 0x3c8f074fbd43a5e3U, 0xbd6cceb8b80e4720U,
  0x3b643e46bc433779U, 0xbd85ade5bc3d9a99U, 0xbd1dacd2bd2e3635U, 0xbdb9f9083b8a8947U,
  0xbdb7a7963bf19362U, 0xbb127c913d74d5ffU, 0xbc5f990d3c1fed70U, 0xbd9d00f1bd4bb41dU,
  0xbb25550b3d2d372eU, 0xbbaa05553d3e96eeU, 0xbba058ac3d3e5244U, 0xbd6799a73ce88d8fU,
  0x3ce693be3d7e1438U, 0x3d815c47bb1d4491U, 0x3d33241dbc35bec4U, 0x3cc9077e3ce04116U,
  0xbd5a28acbdad3d6bU, 0x3c855c36bce92f64U, 0xbce3b3d0bc9fcdaeU, 0xbd71b8a53c925ecdU,
  0xbd760928bdb1a3ecU, 0xbd94eb09bd32d436U, 0x3c26c624bd3f0f50U, 0x3cd22904bd0d9f36U,
  0xbcec2346bb25ababU, 0x3d4ac7b6bd0aa896U, 0xbd158a1dbc9213b6U, 0x3cb9d3573d94d607U,
  0xbd6a7a2ebd1dddadU, 0xbdb4fe5dbd7ec036U, 0xbc02771bbd287e9eU, 0xbc04115c3cc5cf1cU,
  0x3db5770c3dbecf72U, 0xbd9acea0bc2707e5U, 0xbd7a4426bc1dc92cU, 0xbc7cd85b3d412056U,
  0x3aad834a3d51ea03U, 0xbb90bcd5bd6c7484U, 0xbd7e37833c957520U, 0xbdd181083c7d1cd5U,
  0x3d2661593d9992f9U, 0xbd957eb93d9d6522U, 0xbdcc37de3c18447cU, 0x3d4f06553dedcb19U,
  0xbd58f2b23d6d24b0U, 0x3d811fdbbd910db6U, 0x3dd0fde53d5ba3f7U, 0xbde56cf73cc09159U,
  0xbc5f6383bdf1ef6aU, 0xbc3664893ce9152dU, 0xbe202f7b3b1998c7U, 0xbd1184bd3e312e42U,
  0xbd216ceabba43801U, 0x3bb26ab6be0795aeU, 0x3c6a6a00bd5f0ce7U, 0xbd8f6e383ac42741U,
  0xbd1d2b7abdac4b7bU, 0x3b2d6dffbcb438feU, 0xbd8bef48bbb70a76U, 0xbda5c4023d9c8855U,
  0xbd0ea8ca3d45df72U, 0x3d92ed4bbddcd0b4U, 0x3da0778f3d020e55U, 0xbddb70aebd382f7dU,
  0xbd84f4e8be607f2fU, 0x3d96d66d3da58dfeU, 0xbd5362393cc34b17U, 0xbd7992ee3c3c8387U,
  0xbb350cecbb95d643U, 0x3d630124bd2dc957U, 0x3d84abe13cda99d0U, 0xbd85889d3c76d0e1U,
  0x3ce54b15be0b7723U, 0x3d45ff393d98c23bU, 0x3d5a1dcc3d11156dU, 0xbd854c493c6271bbU,
  0x3cb3bf283d2387c7U, 0x3dc1bb8e3b47dedcU, 0x3e1400e53b4c5a3eU, 0x3d18a69cbd0a0355U,
  0x3db848e73cab9d2aU, 0x3dd2bce23dd3b26dU, 0x3da548d13cf2fa3eU, 0x3c2b0c64bae5cedfU,
  0x3c659abfbb17d956U, 0x3d2a6bc23ce7b7a1U, 0x3df36c1c3d431169U, 0x3d883acb3d0754d6U,
  0x3d4ba7483d086c61U, 0x3d0a3f143c260e3eU, 0x3d538bd63c80b925U, 0x3b9fd6d83cd46c93U,
  0xbbb135813d9450c9U, 0x3ca84e313d587514U, 0x3dfdbd1a3caccd56U, 0xbd510edf3cc98d4dU,
  0x3d99df0abdd84a80U, 0x3c8c92c63dad753bU, 0xbcd3bc623d2b97a2U, 0xbc9866403c09d5b6U,
  0x3cf9140f3d5e4330U, 0x3ce7df853d424adfU, 0x3ca20adc3b09e2d3U, 0xbdac58c03dc409d9U,
  0x3e06d5553dc4c329U, 0x3cd799e0bcfdd56dU, 0x3d1e582dbcbda838U, 0x3d89d7103cbeff2bU,
  0xbcf3ea093e13c82dU, 0x3da0531e3e3e32b0U, 0x3d8f32b43d33da97U, 0x3c8664213d553243U,
  0x3aca871e3d6e8e33U, 0x3d1df735bd17aca8U, 0xbd15b1833b486582U, 0xbc90b743bc8c1871U,
  0xbd5e2bc03c2c17adU, 0x3c66069f3cc0015eU, 0xbcf0a27e3d195735U, 0xbda2fc4fbb22a4bfU,
  0xbda2b11abdd0db8aU, 0x3cb5c8d63c463786U, 0xbd03d0b5bd6e11e6U, 0xbd088bcf3d1c018aU,
  0xbc42f78abdc02131U, 0xbcfbdce7bd5eb44cU, 0xbd15d33d3cbd878aU, 0xbd4c5ab93ccde6d3U,
  0x3b91e1293d8ff1ceU, 0x3c1e64ebbd20e606U, 0x3c7b628e3d8e6909U, 0x3d208c5b3d68057cU,
  0xbd9e57d83d34bed5U, 0x3ccd8a5cbce21fa6U, 0xbdb92463bd70fca4U, 0x3d27f8d1bccbc858U,
  0x3d94fbefbb77827cU, 0xbbe9b9343d168958U, 0x3d52eb79bc9517a8U, 0x3d95fd963d9342edU,
  0x3d575f17bd2725e2U, 0x3db407e1bd9303a2U, 0x3dc9285d3c2eecbdU, 0xbc9ac07f3bf9b1a2U,
  0xbd02ef283d8ce49dU, 0x3ddd98563cc78268U, 0x3ab095e6bcc0b9e6U, 0xbc4853fe3e365bedU,
  0xbd91e8453d54c2d0U, 0xbd5ab830bcc90159U, 0x3e0218703cb94c51U, 0xbc54c0cfbda0cf5eU,
  0x3d4718a93c825998U, 0x3cb27d1b3d6d94e0U, 0x3b0f0b713d433f51U, 0xbd0c73793cf9d3f5U,
  0xbd5663da3d92feecU, 0x3ceb93e2bcdbce14U, 0xbb3b70ecbc6af169U, 0xbc8ccdcdbbeee4bbU,
  0x3d905103bdd37cecU, 0x3def3fccbc727945U, 0xbc48cf5f3cc1df4bU, 0xbcba9edd3c308a75U,
  0xbcf692ff3d60bce1U, 0x3db5acbc3d582ba0U, 0x3d75f9bd3db14b06U, 0x3bdc3f163d22c841U,
  0x3cced3bcbcd45e3dU, 0x3d0cd352bc87283fU, 0xbc3923733d4ad049U, 0xbc4221d73d7025a1U,
  0xbc9eb9333dfe5c85U, 0x3dd4bab23dc56ceeU, 0x3daa3be9bcb79a56U, 0x3c71ece3bcac84adU,
  0xbceb5cfe3d5e9337U, 0xbcd7384c3d46e99cU, 0x3d59e6a23c575a91U, 0x3d0e7c923cf110beU,
  0x3d3f58b33c44a370U, 0x3dc96f6cbcb0a4d1U, 0x3d04a7dbbd08e62fU, 0x3d8f61ab3d178010U,
  0x3c4efa8e3c704f48U, 0xbc514265bd1313d3U, 0x3d670898bd28728bU, 0xbcb154a43d95b290U,
  0x3db66cc43d9481aeU, 0x3d18d1a8bcee5a8fU, 0x3d3e52dabca22825U, 0x3e0fb061bb677af4U,
  0x3d0708ed3d9913bfU, 0xbd59319f3cb9e1adU, 0x3d2bc5633d6025a6U, 0x3d496bd4b9170183U,
  0x3e09e2a03c195841U, 0x3ca7c7be3cd3426fU, 0x3d686b26bd3facd4U, 0x3de2dd2a3d156583U,
  0xbcdbb30c3e094337U, 0x3dfa85cc3ce97afdU, 0x3dd0f3f5bc490fe9U, 0x3d5f521e3d79de4fU,
  0x3d2a7be43da905feU, 0x3be699413da881d8U, 0x3e1185e4bd0162a9U, 0x3e1e633c3dbd355eU,
  0x3b31e72f3d05ff6dU, 0x3bf34fa13d4231c7U, 0x3c9551e23d16af1fU, 0xbc2e77c93c753f16U,
  0xbd1e8bba3d8f8b62U, 0x3c944d0e3c88d981U, 0x3d65443fbd1405a9U, 0xbb27a99c3d453fbbU,
  0x3d1150b93d2467a7U, 0xbc2597973d7ac776U, 0xbb8ff6083ac17b06U, 0xbd0da7fd3d7605ffU,
  0x3d10bc5c3d36305eU, 0x3d44bd233cea10cdU, 0x3bbe1aa63d10f533U, 0x3d24ee963cfa5587U,
  0xbdce04d43caa4e03U, 0x3ceb021a3d9444f5U, 0xbcf3d35f3cce1cc6U, 0xbc97dbe6bca98bf2U,
  0xbcd0a489be1bbfffU, 0xbc1998c7be03840eU, 0x3c16c805bd30505bU, 0x3baa7b4ebce9725bU,
  0xbde519febe30f33aU, 0xbd893f81bdb8628dU, 0xbd6a60e0bdbf8e12U, 0xb81035a9bb95499cU,
  0xbd8a56e9bda75a25U, 0xbdc4c9e2bdb552d5U, 0xbd043d61bce7b6bdU, 0x3c8a21013b766d7eU,
  0x3b906c7dbda7bd70U, 0xbe020897bd77f10eU, 0xbd987871bd197831U, 0xbd8d39ed3d49d5dbU,
  0xbdc9235bbd75e6b3U, 0xbd654960bdd93e42U, 0xbb58ceb7bd76a301U, 0xbd33b5b7bda2e37eU,
  0xbd981d10bd37aea6U, 0xbcd215e83ceb9420U, 0xbe008b51bd99bf22U, 0xbdeaaccb3dc3d6cfU,
  0xbe02eeccbd12ada9U, 0xbdb69942bc82ababU, 0x3bda3e8bbc7b7f10U, 0x3bfcd1d2bca7e8fdU,
  0xbd849595bcc2f678U, 0xbd8d32b73c805795U, 0xbd3c70c2bcd2bc2bU, 0xbd86b66a3d552648U,
  0xbe3acc60bcc24c10U, 0xbc4b93d7bcae8700U, 0xbdda57f2bddca417U, 0xbd448f74bc8176bbU,
  0xbb5d8a7abd1af197U, 0xbe0740673baf2880U, 0xbd0b620dbce14b13U, 0xbd3d27363d521804U,
  0xbd9a541f3cf7ec7aU, 0xbce17261bd7d8c66U, 0xbdd88d21bd88ed85U, 0xbd2cd04bbd95d0e2U,
  0xbcb222cbb7ce0d94U, 0x3ce66537bc01b0d3U, 0x3d6da2c03bf45573U, 0xbc40b33ebb2e6856U,
  0xbd5032bfbd834395U, 0x3cb1a16cbd154667U, 0x3b2e9c40bc884331U, 0x3d64ea923ce6c4b0U,
  0x3cbc8f473d03637aU, 0x3a6d61fc3cf6867cU, 0x3ca0cf853d1f53b4U, 0xbcaf5e533cb0c266U,
  0x3ca6fbe0bcd87084U, 0xbbbbb00cba1371d1U, 0x3d3e4aabbd043e54U, 0x3db0650ababe9748U,
  0x3cae272a3d9b6d9bU, 0xbc26745e3d5bc8b0U, 0x3c3d03a8bb74f1bfU, 0x3d5581853d13ff1eU,
  0xbc0b22b63cf60027U, 0x3cf5a41f3ca02073U, 0x3d6afc013bccca68U, 0xbc0149003d20a7c7U,
  0x3c9755103d8bef1fU, 0x3d2a2f1ebc8f4a79U, 0x3c33fa0a3cc66a8dU, 0xbba1f841bcde1aefU,
  0x3d43d7083cf25307U, 0x3d8211773d62b417U, 0x3d0d202e39ec8a38U, 0xbc0fa404bbf1a348U,
  0x3dd8d91f3d95587fU, 0x3d5814463db182a8U, 0x3d13f7743d9ab9e4U, 0x3d8863583c1fd20aU,
  0x3d8dac3d3cc9aa45U, 0x3cbb99943d9796f2U, 0x3cfe929ab988291dU, 0x3c0b29ca3add9811U,
  0x3bad5ad53da2e142U, 0x3d856ffd3d8a2796U, 0x3c8d7c993d6f0295U, 0x3cad91bc3d301af8U,
  0xbcf766dabc8fefd5U, 0xbbdad7c1bd2a972aU, 0x3d1b0ba33d917e60U, 0xbc73d76abb052d77U,
  0xbbdf901dbd76c989U, 0x3d20028abc90c045U, 0xbd0446f9bc2441c7U, 0x3d145d913d267b9dU,
  0xbd692469bd931e38U, 0xbd11b6e5bd3ad1a1U, 0x3d2f4ca9bca574b5U, 0xbc8e26b7bd1ddeccU,
  0xbd8ef90dbda5097dU, 0xbc887480bdddbb86U, 0xbdba46adbd9da8ddU, 0xbdc292cfbc161788U,
  0xbdad8fd0bd68a264U, 0xbd93055cbd61d7f7U, 0xbd913453bd2faa79U, 0xbe24dd31bde338d7U,
  0xbd368dacbc844fc2U, 0xbd0d5ac73c919f29U, 0xbe7971f6bc55489dU, 0xbd243f083d9bd98cU,
  0xbc933256bd0f59ffU, 0x3c9b8350bcd62339U, 0xbd528418bd6b5e2dU, 0xbe27cf9cbd5406fcU,
  0x3d7642113d0c121aU, 0xbd40a1753d02cf31U, 0xbe37157a3d904278U, 0xbda84e363d5249a1U,
  0xbc775dd6bb246c1bU, 0x3c1686783a0a2bf8U, 0xbc60434abb3de36bU, 0xbe69b571bc81e683U,
  0xbbb6f0f6bc112914U, 0xbc9cce65bd547740U, 0xbe3d7c21bd2cff90U, 0x3c39c4763d7517efU,
  0x3d0a650dbd52f985U, 0xbb9678293d551aadU, 0x3d33cdc63bec8540U, 0xbe82a465bc8818afU,
  0xbd2989243c4eb83aU, 0x3bcd774abbe514bdU, 0xbe17d9613c520d8bU, 0x3cff6b173e08802dU,
  0xbdc90594bd7ee7e0U, 0xbd0641eebc1ade33U, 0xbd9bbfce3d15e803U, 0xbdda3c74bc2e2091U,
  0x3cfdc3d5bc2dd2c2U, 0xbd1c9f003d222714U, 0xbda399443ac069edU, 0xbd999be53df1a34aU,
  0xbd01a6ac3d2ae8ccU, 0x3d295d833d2aa7e3U, 0xbd162fdebbb593d1U, 0xbe0f75573cd1086fU,
  0x3cc886803d75db69U, 0x3c9fdb593c2ad80bU, 0x3c9a735c3d95a52dU, 0xba4ac1ac3db46d9fU,
  0x3cfeeea63c15dbb8U, 0x3d7c47583b82c639U, 0x3d24f29dbd17e2f1U, 0xbbe528d83d65b306U,
  0x3dad68d63e0430a4U, 0x3c4d075a3b2104fcU, 0x3d9b08383cea7d2dU, 0x3d0828653d9f8c96U,
  0xbbcef8ee3da82c45U, 0x3d7357573d0e6310U, 0xbcb6a3ed3cdb14a5U, 0x3db655213c95f1fbU,
  0x3d4622103da70102U, 0x3d62761f3d156abdU, 0x3d9a4a3d3db277c5U, 0x3dc6c50e3ca897c9U,
  0x3d5d2997bcfafe1eU, 0xbcc063b73da9c993U, 0x3deae68b3df3de95U, 0x3da96efa3dbf02f3U,
  0x3cb9690cbb615263U, 0x3b28fb1c3d6746a0U, 0xbc8b8c663d9187a8U, 0xbcc40eb43d9618e4U,
  0x3c25fbdabc1b0d47U, 0x3cef36093c31cfa8U, 0xbd0e9c1f3cfa6802U, 0x3b9911393d13c27aU,
  0x3bb685ea3d692d23U, 0x3d5989e0bc2da173U, 0xbd005543bc26f3c0U, 0xbd6f5d0c3d42123cU,
  0xbb2988afbc0f7099U, 0x3d8610a23d8307cfU, 0x3c7c2f16bcd00b42U, 0x3c5440343cc8ea3bU,
  0xb9218d733d39f021U, 0xbcc14c723d023a5dU, 0xbd73db31bcfa8299U, 0x3c37dee7bcccd4b9U,
  0x3cf91aa3bcee9734U, 0xbd3137df3cc0314dU, 0x3bddac193bb2724dU, 0xbd7cda273c60bae8U,
  0xbd0238f9bd8724c6U, 0xbd01d654bc86e64dU, 0xbe074670bd87eaccU, 0xbcb08ec83c6708a4U,
  0xbdb9cee0bd0748d0U, 0xbd69cb143b7ad462U, 0x3cb813fdbda3cf92U, 0xbe4e1404bdc50393U,
  0xbc714709bd6af2e9U, 0xbc59fda93cd04296U, 0xbdffe9acbc1028faU, 0xbce95d003ddb3c0aU,
  0xbd225dc13b539988U, 0xbcdc345bbdf7ed2bU, 0xbd8eb8a0bd19d01aU, 0xbd9c5e5ebd2147ccU,
  0xbd77a90abc07de1bU, 0x3c0446ef3d979c87U, 0xbd86f1dfbcbc8237U, 0x3d0aa28c3d528532U,
  0x3d07390d3ca995d5U, 0x3d9bec3bbd16b6d7U, 0xbd1388c9b8d6f432U, 0xbe1453fbbd32c1c0U,
  0xbd3420b4bd1e7171U, 0x3d88d8173d09c24dU, 0xbe2fadaa3c28ff69U, 0xbc90f2803db9f9b4U,
  0x3c8d92593d18c48cU, 0x3cc4c5c4bcc560c2U, 0x3d47e9f43d9dc9baU, 0xbdaeb8afbc17e17eU,
  0x3c74d3b63c43dd03U, 0x3b2e52793c8cdd4bU, 0xbd3397e13cf35d7aU, 0xbbcb1fd83e31e68eU,
  0xbd724ff63c5c9064U, 0x3d1e8a623d05080dU, 0xbc5fa34e3ce442c9U, 0xbdd29aa8bd1df4f2U,
  0x3db6c99e3db04cb4U, 0xbce6f485bc683138U, 0xbd571f593d853adeU, 0x3d2e5d6eba8156e3U,
  0xbcd7bc973d6d13c8U, 0x3d7cf8673d1f9499U, 0xbd7b02803d21d8bdU, 0xbd1612f43cc994f4U,
  0xbc7b69523cfd89c7U, 0x3c6af0df3c1747ccU, 0x3d51f9713bc9a86aU, 0xbcfd0c883e1cac2bU,
  0x3c466131ba829b16U, 0x3ccea3143d467333U, 0xbc804e8e3c4daf10U, 0xbc91cb9f3d4e3178U,
  0xbc64fbbcbbac7f7fU, 0xbd07a7f1bcd35b3eU, 0x3db0b415bc97071fU, 0x3c0edf273dde01b4U,
  0x3aee4621bc9652d9U, 0x3c652bc8bc22bda8U, 0xbd2494353d0aab49U, 0xbc983984bb884b01U,
  0x3ccef2803b86a75dU, 0x3d3665c93be8a552U, 0x3e294d583d714fdfU, 0xbc71f96c3d42fd7cU,
  0x3ba4192b3cd70f01U, 0xbd214506bc0af6baU, 0x3d370c293ca2015cU, 0x3db74d303d330951U,
  0x3d2383713c821769U, 0xbd19a6163d87fd5eU, 0x3ab9a5343d9ef649U, 0xbd6bea443d2cd665U,
  0xbcdd42d93da2a0f1U, 0x3d66d6e43cd7eac8U, 0xbcdcb7bbbd142774U, 0x3d6fd80ebd42d04bU,
  0x3ca293763d4e1d4cU, 0xbd0e43aabc8425e4U, 0x3d4e5d6d3cbc6a6dU, 0x3a9fb7de3d85c9c6U,
  0x3c9c2b3a3cade6cfU, 0xbccc373a3c54a060U, 0x3da589043d4ebc1dU, 0xbd736b51bba097e7U,
  0xbd961574bd1dc199U, 0xbc99f5a8bb7845d0U, 0x3c342d95bc4ab32cU, 0x3caf08ec3c8d3dc3U,
  0xbb418e3bbbe55fafU, 0x3b0b458abdc7e13fU, 0xbd29a8bc3c254ba6U, 0xbd2a152dbd87dc23U,
  0xbc450a71bde6ec2dU, 0xbd8921a2bd0e3fc0U, 0xbdebabb2bd540b85U, 0xbcb1a4713db57781U,
  0x3b448b96bd831dbaU, 0xbd7b4e50bd552794U, 0xbdd6b01abd6f4276U, 0xbdcbdefcbc267f03U,
  0xbbb98e9cbd3d7f5eU, 0xbd038e1ebd50a75eU, 0xbdb2ea973d031beeU, 0xbde1ffe63db3cd10U,
  0xbdd7955a3d3ada5fU, 0xbc3cf0fabbe2dda2U, 0xbb4b4ad5bd34ae3dU, 0xbdc5b2bfbd82965cU,
  0x3d2f7bb6bce33509U, 0xbd6a8cd03d4869dbU, 0xbdc1426b3d3a843cU, 0x3c6cfba73e5c734fU,
  0xbc0978673dc2f4e7U, 0x3bbe3e7839025820U, 0xbdb9e3503d6c6bbfU, 0xbde1e9943c7101e3U,
  0x3db1d2973c17a9d6U, 0xb894a4a83d118976U, 0xbda4b0803d833dadU, 0x3c2b35f93df49933U,
  0x3d4e5c053d7006b1U, 0x3bd65add3c5b0d59U, 0x3d1dabaa3d06b2efU, 0xbddeb567bb7aa619U,
  0x3dd8bf053d69719aU, 0x3db3da6f3b89e5f9U, 0xbdf3bf903bac8d7aU, 0x3d98acd13e198b2fU,
  0x3c7fe86b3d93c33cU, 0x3d872f2c3d7465edU, 0x3d80a48c3da22c63U, 0xbe0154ecbb1ab311U,
  0xbcf2f598bc207222U, 0xbc973fec39db772eU, 0xbc6f58a83c19a505U, 0x3d98b0d83d8bf765U,
  0x3c68f20ebc81efb9U, 0x3cbb24f33d197969U, 0xbbb81eadbcadbe72U, 0x3ce22aaebcc15823U,
  0xbc3ecec63c6c9ee9U, 0xbc3f08e2bd0c3eb3U, 0x3d46de103cc455b5U, 0x3c4cd4253d2d978bU,
  0xbd843ec4bd03e6feU, 0xbd0fe7eabc88d14fU, 0xbcb483ccbd6cb3f4U, 0x3e0268583c8da67eU,
  0x3cba8c863b29f69dU, 0xbd123c833d003838U, 0x3da2e01a3d6f278dU, 0x3c8217fd3d0006b2U,
  0x3c1b502fbc83b528U, 0xbd697b52bc1c59a5U, 0x3b10dc0abc7c4901U, 0x3e2946483b93d0e5U,
  0x3d493c3a3e1a8e07U, 0x3d4011483ba7339bU, 0x3d9b080b3d3c1c56U, 0x3bd820c93d2afc9bU,
  0x3db447d53dcffc51U, 0x3da5e96d3e0219e4U, 0x3ce8a16abb5839d9U, 0x3dde347e3d94e96aU,
  0x3cc6304b3c8a510bU, 0x3c180ebb3c4a5913U, 0x3d4354263b335831U, 0x3c75bcb93d7856c1U,
  0x3c6ba4f03d0b0258U, 0x3de62ed5bcecd6e0U, 0xbcc44b85bbe2ccecU, 0x3cd9483f3cdcce57U,
  0xbd275478bced5a8aU, 0xbda2b4b13cc49a31U, 0x3c2a1c75bcd5de00U, 0xbc9ff0923d44c57bU,
  0xbd09a8dbba13fdb1U, 0x3d84d316bd1ad379U, 0x3d649f343d3701f0U, 0xbd1989edbc9f52efU,
  0xbd5acca3bd6bcaceU, 0xbcb714b5bd4d99abU, 0xbdb394babdc028c8U, 0xbba1e9dabb08e98dU,
  0xbd1d2b6ebd8f3b76U, 0xbd747829bdc05c07U, 0xbd3e9ce6bd087cd0U, 0xbdf06847bd94310cU,
  0xbd94c7d7bd4c85ebU, 0xbd621b15bd97fac0U, 0xbdb6b288bcc86ef7U, 0xbd13c7ad3d6f9b0cU,
  0xbdde0946bb940756U, 0xbd633b9cbd2f3123U, 0x3bff893dbd3470f2U, 0xbdd72c3dbda23176U,
  0x3d88be6c3ce82589U, 0xbcec4963bc148035U, 0xbd8947283d60657cU, 0xbd4be1e63dd18cfeU,
  0xbd621be6bc098d76U, 0xbb246b803d4c215aU, 0xbd90793d3c26a3dcU, 0xbe0f413fbc30615fU,
  0x3df416063db95671U, 0xbd223d8a3cf506d3U, 0xbd7513633ca3e67cU, 0x3d4a898d3d95164eU,
  0x3cd93a313dbc3d7dU, 0x3da747aa3b3bd231U, 0x3ca76d0f3dbf632bU, 0xbd1d61e93d12c9a4U,
  0x3db088bc3ceeeb08U, 0xbbe9810a3d87a94aU, 0xbcce42c13dd3491dU, 0x3d9c33b23dce3b5eU,
  0x3dad8c393ca2c31cU, 0x3cefbcf1bd48ccaeU, 0x3dec432d3d7cdcfcU, 0xbc8eb4603ddb34c5U,
  0x3ce43f33bdddf567U, 0x3d2cb1313bbe891bU, 0x3ccfeedd3c3d6c1bU, 0x3d915e883e27a109U,
  0x3d207f6dbcdee456U, 0xbb760f75bbdefa5dU, 0x3dc84cf43da5ef09U, 0x3dc778ce3d5de10dU,
  0xbca58dc6be63db5bU, 0xba932592bd3a4335U, 0x3dc3e29f3c49ff34U, 0xbbbf19123cc6bdd1U,
  0x3d73d36c3b58bcafU, 0xbd3cd52dbd7cef9eU, 0x3cf0290c3c7bd07dU, 0x3d3f6766bd85390fU,
  0xbded1610bdd6bab0U, 0xbb7b309ebce4da48U, 0x3db0e677bc91ca5cU, 0xbc8d79ae3ce18f6fU,
  0x3caec3d0bdd536fdU, 0x384c740ebd535249U, 0x3d14cbf5392233f2U, 0x3e07f5e4bd832398U,
  0xbd6755ecbcf7a34cU, 0xbb2826563c977f39U, 0x3e23fa4c3c65c787U, 0xbd41a82abcb3f7f8U,
  0x3bccd936bcdfdee1U, 0x3b4f91babbf0c72bU, 0xbd8ab260bd9c508dU, 0x3e056cd63c7d1e1fU,
  0x3d3a09eb3d9a38c5U, 0xbc2c9aa43dd68ad7U, 0x3e0e588e3da95c23U, 0x3d9011c73ba2b764U,
  0x3dd190963d3539daU, 0x3cb578423d54c849U, 0x3c74544cbcde3953U, 0x3e15d7ba3dd5e7ccU,
  0xbd30bf26bd12bdc4U, 0x3d06b0aebd839343U, 0x3a33abdbbb1e3701U, 0x3c53d5493cfd7140U,
  0xbd4d328fbca0d960U, 0x3bc30698bd14256fU, 0x3d0186babc9cf700U, 0x3d8ff24abb750959U,
  0xbdbedc8ebdc5cfadU, 0xbc7986463d139e51U, 0x3d07776cbc132311U, 0xbd0f3c233ce908f8U,
  0xbbcfcabcbd6d6321U, 0x3b6bd197bdbff3c2U, 0x3d6a1ef93bcff86dU, 0xbd3e38f3bda0ecc5U,
  0x3c931707bc8727d2U, 0x3d8c55633d52fe35U, 0xbe18515bbc277739U, 0xbd456dac3d344afaU,
  0xba94ddba3cec0448U, 0x3ce2b16ebd5b3ebdU, 0x3c0236a33d341eebU, 0xbe51a5f6bd2a551cU,
  0xbc66a2723ca1e1a6U, 0x3c0b8db5bbc4e384U, 0xbdaea625bd045458U, 0xbd4d6fd03d9854f1U,
  0xbd3ddf4b3c2c33a8U, 0xbcbfc0873cca9234U, 0x3ca48a81bca24d1dU, 0xbe371b11bd28723fU,
  0x3d26f5a13d4716bdU, 0x3c9c33043c75a6b9U, 0xbd9909d53b1ad077U, 0x3c5a2d1f3c59c80dU,
  0x3d8891113dbff2a1U, 0x3d95e2adbacd1a10U, 0xbd2592813d10e48eU, 0xbd6700873da08238U,
  0x3dc428663c8d9acfU, 0xbd214e7d3d0e40f0U, 0xbd4cfeac3db7b2ebU, 0x3d9382a7be1399f3U,
  0x3d16233f3d21ad4aU, 0x3dd62f203d03d2b7U, 0x3cfd953a3dd4c2a7U, 0xbdbd977f3c4ffe8dU,
  0x3c995838bdf93daeU, 0x3d66a43bbce9e3c8U, 0x3d18706e3d7a6bafU, 0x3da6d7e93e0be597U,
  0x3d499b07bc95f60dU, 0xbbda3898bcb74403U, 0x3d4d2f423caac818U, 0x3d288b0f3d9bcd95U,
  0xbdb333b5be8a39caU, 0x3db05e87bd36559bU, 0x3d65e04cbc842ed6U, 0x3bd3ce783d0ce5caU,
  0x3d174aedbd3c7b7eU, 0xbdd111ffbda7c90dU, 0x3ce1ad983d848624U, 0x3d6a707cbd7a262eU,
  0xbd3685efbe8665e5U, 0x3d6e10e6bd066107U, 0xbca7581fbd4f7a8bU, 0xbda5891a3d542932U,
  0xbd21279cbdd9c039U, 0xbce54cc3bddec066U, 0x3db16463bca6af35U, 0x3d32a25ebdafbeadU,
  0xbe305657be4fd7c7U, 0xbd0e85cabd92e1e2U, 0x3d56c19dbdf2c321U, 0xbde0c1193ac5b6fdU,
  0xbd32d360bd99d924U, 0xbe0661ddbd867437U, 0xbd8eb668bdd8a242U, 0xbb8b3de3bd86b4a2U,
  0xbde6eb1fbda8da6dU, 0xbd656d4dbdc44961U, 0x3daf81cbbe0a7f14U, 0xbda0dbe1bd84e32cU,
  0xbcf56326bd9d79beU, 0xbdeabfa2bd35e3f4U, 0xbdb7db60bda6c8beU, 0x3e0e32c7bd43eec5U,
  0xbbb172a13c27e46cU, 0xbdfd9b183c269379U, 0x3dee39bfbd901d5cU, 0xbd494a4dbc2f609dU,
  0xbd200e61bc0e0889U, 0x3d3dbf2bbd75a469U, 0xbe02ae66bce4d247U, 0x3e0aee1e3cc6c841U,
  0xbbbbef61bb182ae7U, 0x3ce4732bbced0b05U, 0x3cd8b855bcc4936dU, 0xbd3eb3e83be5909cU,
  0xbc148764bb9fd8abU, 0xbcab7734bb47f4ccU, 0x3d73e909ba052aa7U, 0x3d478dd8bd1d3394U,
  0xbc0f0a04bce845f7U, 0xbd0d7c36bd500020U, 0x3c695f7bbc8c11f2U, 0x3b8d5e64bbca950eU,
  0xbd27c731bcd3f5a2U, 0xbdac35fb3b8d4a3eU, 0x3cc94544b9edb6a0U, 0x3d050960bd607dacU,
  0xbd39a6cbbdbca9a7U, 0xbd168476bc024cddU, 0x3d0624c4bcb56930U, 0xbd78f8ce3da31e74U,
  0x3c9e11cdbdb85e14U, 0xbc484987bcc4af80U, 0xbc246bb83b97235dU, 0xbd35dddbbd8e56dbU,
  0xbd600e1cbd4c6a45U, 0xbac161ccbc3a4d84U, 0x3c3612b63cadef61U, 0xbc69d2fb3c473c5fU,
  0x3d67c48ebd869540U, 0xbb39248ebd818e8cU, 0x3be48ee23c9c0e44U, 0x3cd3fb55bd2da626U,
  0x3ced53a2bd1ccf9eU, 0x3c38e3533d066e8dU, 0xbd8b2c3c3ca9eb39U, 0x3d9e8d8fbcaa1758U,
  0x3b1863eebc4a97dcU, 0x3d8855d5bda79652U, 0xbcb9cb253da1eb6fU, 0xbd0de1523cec2592U,
  0x3cb5a71bbd8594f2U, 0xbca2072a3db00efdU, 0xba87b0c53da3d321U, 0x3c929b7abe112a7dU,
  0x3ce174b13b785b8fU, 0x3d12cb73bd0bec52U, 0x3d1f28393dbe37e7U, 0xbcadb3de3c96a9caU,
  0xbc80c986bd1966ecU, 0x3cd27f68bd08baa2U, 0xbd3df1873d07e325U, 0x3d51b8073e86b893U,
  0xbccd2dfebcfb802dU, 0xbd15fe15bc5363bbU, 0x3d17a3f73ce43018U, 0xbc1fcc823d1b29c5U,
  0xbd5e7a24be2bf987U, 0x3d6eb23bbcb3ed84U, 0xbd6f204bbd61f1edU, 0x3c74549f3cdeabb8U,
  0x3d087663bc1c324aU, 0xbe06407cbd3aa82fU, 0x3d1988cd3d003d77U, 0xbddc45a0bd74c924U,
  0xbcda3fd1bd8ced63U, 0x3dc8f8d13d3af014U, 0xbe49e9b9bd519939U, 0x3c209014bcc7990bU,
  0xbc68a8623c09d8f4U, 0xb8ac8f9ebdd85056U, 0x3d519366bba272f5U, 0xbe3ea89a3bd4e4a8U,
  0xbc5d8deabda37a63U, 0x3c899fc1bd4776ceU, 0xbdfa0c94bd965c97U, 0xbdcf4991bc6dab16U,
  0xbde5fecdbc60fea8U, 0xbd4fdf153a7d40baU, 0x3c9636f53cd4aa7bU, 0xbdf66cb0bd11a868U,
  0x3c437f29bd791dc2U, 0xbc79c97abcf69ac5U, 0xbdfd7a82bd194096U, 0xbda19900bd405a87U,
  0xbd4960ef3b4d1f52U, 0xbbc25d953d82b64cU, 0xbb9d80d3bd36b0a8U, 0xbd280925bdfc7078U,
  0xbc3cb1f03d00d586U, 0xbd424233bd5c6ddaU, 0xbd95bfa6bd5ec38eU, 0xbda9f2e63cc54efdU,
  0xbdfec7d93d1ec621U, 0xbc31e9a7bd0c58d3U, 0xbc1e8617bd281f35U, 0xbc91efc7bdb98a3aU,
  0x3d0bd8f83dc5f989U, 0x3a89aa563d629d2bU, 0x3dee7120bd789880U, 0xbd0329fc3c8ef9feU,
  0xbce18956bbf4c267U, 0x3cc67093bc6684a6U, 0x3cb942303b3d01d9U, 0x3d9b84e03d20291aU,
  0xbdb0d662bd5ef6f4U, 0xbb8ed1f1bc516d33U, 0x3e073413bd5efbedU, 0x3d352668bbd45e16U,
  0xbcc45581bd029563U, 0xbe001d0fbcbef5e1U, 0x3ccd4335bd681387U, 0x3e1ae5223d049229U,
  0xbdf0e7cdbd2afe82U, 0xbc220632bd101f2cU, 0x3dce44aabc217481U, 0x3c2e14023db45944U,
  0xbcf201b5bcf9084fU, 0xbdbfb5143c3bed42U, 0xbcca187dbdc2efe8U, 0x3e2453333bb58f90U,
  0xbd8d35f7bd532e8bU, 0x3cef8f1cbcf73721U, 0x3dabb44a3bc13892U, 0xbbc0e8d0bd16c4c6U,
  0x3baa0e3f3cb5014dU, 0xbc18ecd2bd277c18U, 0xbca8eda63b1b71fdU, 0x3d8aef9bbd68667eU,
  0x3cdeaf90bd418117U, 0x3c7055fa3db77b4cU, 0x3cd0c5b63d935a9aU, 0xbd3380523c453fd5U,
  0x3b6b8aca3c867395U, 0x3c928f253cd3acc4U, 0xbd4e5ad6bc13e6cfU, 0x3dce5f7fbcc0cb9bU,
  0x3d557484bd4d8192U, 0x3d0ad48c3d97b577U, 0xbd365dc93d0dd511U, 0x3d1c93ea3d424bcaU,
  0x3d01fa843d1a98f9U, 0x3d6f6866bd1a96a2U, 0x3d9bd0863dc593e1U, 0x3c068d033c9344ccU,
  0xb90da08fbd8f53a2U, 0x3b9c72293c6c0db2U, 0xbdbe3823bcba704bU, 0x3c5ede2d3e81c0c6U,
  0xbcc80119bd6c0b9bU, 0xbdbbad79bd0a5066U, 0xbad5956a3ca14365U, 0xbde9da203d4768c4U,
  0xbd788fb4bdac671aU, 0xbcca16a3bd8a664cU, 0xbd3510fdbb67a316U, 0x3c9a6e9b3d8e2b07U,
  0xbd4581f9bc9e69a6U, 0xbd9dc286bd8f8c04U, 0x3ca4201f3c69c630U, 0xbe0960fcbd77978bU,
  0xbdaddd77bdb4dec2U, 0x3cba71503c76da4dU, 0xbe051b623c5a28d1U, 0x3cbae12b3d7fec21U,
  0x3b935b42bd773575U, 0x3c388d7dbd155822U, 0x3d4dccd03d201e18U, 0xbe472d84bd687947U,
  0xbda1f551bd7f1298U, 0x3d6da94dbd5f690fU, 0xbd92086a3b972b97U, 0xbd3532803b9008d6U,
  0xbd13a22abc9a4439U, 0xbd72615ebdaf0e20U, 0x3c0281a03d05628fU, 0xbddf151fbd75dd7dU,
  0x3d284d503d1de2aeU, 0xbd041f123bfb5efcU, 0xbc270a9ebd461934U, 0x3c9bf62d3ce62b51U,
  0xbd85a0ab3ccf66a9U, 0x3ac33083bb1b7ba3U, 0x3cec0244bd34324fU, 0xbb56b3dabd565cb5U,
  0xbad989c63d89297dU, 0x3c08fef13c99f9ddU, 0x3ce61133bcd9eceaU, 0xbc1033323ce58966U,
  0xbb5f00e73c9f449cU, 0x3d1151ad3d8092eeU, 0x3d550a41bbc0ccf9U, 0xb986a9803a901358U,
  0xbe080be4bd7b7f16U, 0xbd8de7acbd3fd17bU, 0x3d0fab03bd820590U, 0xbd9358933ce78879U,
  0xbd158ab8bda404c4U, 0xbcccf542bd470f77U, 0xbd1c32a8bd11d18aU, 0x3d89822dbd0126bdU,
  0xbd8b1f03bbb92991U, 0xbd70c603bda30197U, 0x3d93a328bc63749fU, 0xbc052fd63d72e790U,
  0xbc092c18bda46b65U, 0xbd21ee483d5d7289U, 0xbc116c80bd76775bU, 0x3dcd2414bd5155bdU,
  0xbcaeccef3d163891U, 0x3cb359e8bd882285U, 0x3d0e784b3c1802acU, 0x3c11637f3de181cfU,
  0xbd331025bbff0a84U, 0xbdada45f3d7cb133U, 0xbcdc270abd96454dU, 0x3d9e8745bb720f31U,
  0x3c5be209bc8a0a29U, 0xbcf9f0ba3c9e0804U, 0x3cc23619bd028efdU, 0xbd1fba393d7a96b5U,
  0x3b6047833cb4e3f7U, 0x3cdfe862bcb10e71U, 0x3ae9be8cbc2721c3U, 0x3dc574663c97a4e1U,
  0x3c929154bd413792U, 0x3d0762db3dba2b32U, 0x3d071b7a3d35b054U, 0x3c1881383dfedc53U,
  0x3d92d0b03d983650U, 0x3d8cdf05bc2e1ebfU, 0x3c0976f93d8fa2eeU, 0x3d5e1a0abceb8958U,
  0xbc38304abe205fd5U, 0xbb666b943cdb3553U, 0x3bdba7e23d80cac5U, 0x3d40fbd53e91327bU,
  0x3c82f8dd3d22ebf9U, 0x3d0fac00bd46fbd1U, 0x3daa14853c961a29U, 0xbb9bb69c3d9c9094U,
  0xbd8ac2a6bde9cd8aU, 0xbb387948bcd8e1cbU, 0xbdabc8e03d25168cU, 0x3bbc96593e7a9b10U,
  0xbaa1554bbd0fd9f8U, 0xbda8b429bd01cf6fU, 0x398039363d92c108U, 0xbdcf4ae33b2dd282U,
  0xbd7aac753c0bd1aaU, 0x3c62a3c3bd1e3e2eU, 0xbdcbba24bcf3a58cU, 0xbd043e233d497593U,
  0xbab8e031bd6bef93U, 0xbdd74230bc7a9967U, 0xbd3ce0bf3ced29a9U, 0xbe03ece7bc98b5faU,
  0xbd862b37bdcfca2eU, 0xbd10a48c3cbb056fU, 0xbd95b6d73cad2dd2U, 0xbd427f13bc8266edU,
  0xbd4bd428bd56a13aU, 0x3c2b4b22be059d97U, 0x3cb70f84bd68c137U, 0xbcfab318bccc5c13U,
  0xbd833dd4bd92d2d4U, 0x3cc7fd60bd4e0770U, 0xbd3af4c6bd767777U, 0x3a95c1293d852d1aU,
  0xbdcea94cbc945a6eU, 0xbc6990dbbded3311U, 0x3d18d7dcbd8a0eeeU, 0x3cc3e154bd9d0adcU,
  0x3d0d74213c1a9224U, 0xbc7be2fb3d8cc6ccU, 0x3cb6b9073d84c8e7U, 0xbba286fb3d60aa52U,
  0xbd3c9eed3ce5b498U, 0x3d97dad7bd51f9d9U, 0xbd8082473ca275d0U, 0xbd4766f7bd0c09e8U,
  0x3d04f8833da819c7U, 0xbbc032cb3d1f80d4U, 0x3d4d69c43cd436ceU, 0x3c8fef073bf3c670U,
  0x3d1eeeed3b8821f0U, 0x3c78bc3e3caf074bU, 0x3ca35d3c3d65e542U, 0x3d6ffe3b3cf49a5dU,
  0xbd6778503a9df9dcU, 0x3d2aea77bd9c9f4dU, 0xbdbc9d85bd26918aU, 0xbddc16023d5e1c7eU,
  0xbc525d42bdce0a6dU, 0xbd4370233c85b4a2U, 0xbbd7815dbcc7a88dU, 0xbddeebb6bc5d417fU,
  0xbc27dcf33d85bebaU, 0x3cf38ea7bd199190U, 0xbbc0ffcabd81bd1bU, 0xbd8589513d7a3515U,
  0x3b7a915dbc0f8a46U, 0x3c91ba79bd30630eU, 0xbc65f67dbdaf1b52U, 0xbb37bed2bd07fc04U,
  0x3d056de4bc881d33U, 0xbd6d4a80bd5a32faU, 0x3d7cb9bebb93d495U, 0xbc76d09a3d91b97dU,
  0xbbf4643a3d05aaafU, 0x3c55b4f33d9ed2e0U, 0xbd18bec1bdaf70afU, 0x3cee2d88bb275f2dU,
  0x3d8657313dc95352U, 0xbda040f23d6b9944U, 0xbd45e8d2bc359260U, 0xbbe082193d2d95a6U,
  0xbd0e16333d1d5c83U, 0x3ccab26abc7d8010U, 0x3c0fe1263cf8cccdU, 0xbcd2d4773cce5aeaU,
  0x3da9ba563cb8ee95U, 0xbdd98f783c69ae55U, 0x3c1135d3bb1732b0U, 0x3d133f1e3e7e5f70U,
  0xbd81aade3d616575U, 0x3d8eec28bbcef931U, 0x3c9394e0bce20a42U, 0xbd3bb24f3c34e826U,
  0x3c92d3c3be00d191U, 0x3d1ac332bc5d6130U, 0x3d1b5d393cfe5c5fU, 0xbd1867483e6b8e56U,
  0x3c823b6bbc8d323aU, 0x3d95924abe091f1bU, 0xbce35d843dabbfa1U, 0xbd6c65e63d02c6b3U,
  0xbda47568be1fed69U, 0x3ca8d089bd294354U, 0xbae85dcb3ce126caU, 0xbb9c0bc83d9c11b6U,
  0xbccd4baabe0fe903U, 0xbd931d50be06263aU, 0x3aa39bd0b9ef0f5cU, 0xbe2404453c921c53U,
  0xbe009be5be3a341eU, 0xb99d09ddbd3e8620U, 0xbcd3280abd4943d2U, 0x3d13ace8bc9e0b2aU,
  0x3d06e258bd7b285dU, 0xbe07badabdbbf6e0U, 0xbc3c17e23d466e8aU, 0xbe070d79bcccd6abU,
  0x3d46f321bd6bb931U, 0x3d0b9376bd0f0045U, 0xbcaf42da3ce5dd3fU, 0xbda052103db219f9U,
  0xbd23e60fbcd91e8aU, 0xbbfc2d0cbdb8a4a8U, 0xbd145ad6bcff56f5U, 0xbcc7ed24bd999eecU,
  0x3d2609813d4bf341U, 0x3c45870d3d59eeb3U, 0x3c3add9bbc9a5acfU, 0xbd5cfbea3c1ff425U,
  0xbda4293ebb480324U, 0x3b3d19e83bfb735bU, 0xbbd11db3bd26117dU, 0xbcb269fabd87a205U,
  0x3d02b7163d308f3aU, 0xbd1d838a3d15608aU, 0xbd3232443c6410b1U, 0xbc6bf0e93b073e34U,
  0xbd8f6dcc3d2858c9U, 0x3d91dc8bbc863637U, 0xbd0976563cf151ccU, 0xbc4efbd3bc4348d8U,
  0xbc8015423d9f6a73U, 0x3a972b873d509767U, 0x3d91b64f3d687dd7U, 0x3d4e42713d3c4c2eU,
  0xbc9f82d83d8b1da0U, 0x3b67d2ca3d45f5a2U, 0x3debae2d3c63a6a9U, 0x3d1487833bf9ac50U,
  0xbd9a7857bd53f7e4U, 0xbcf79e5ebd42a515U, 0xbd78d40bbca204b2U, 0xbb9140f23cdd2cadU,
  0x3c130b0abcec5b6dU, 0xbccdf2debdaac23dU, 0xbc3c1129bc83a873U, 0xbd5bf9083c36487aU,
  0xbdb0aa48bd0b6526U, 0xbb33ee45bdab4f0eU, 0x3ba75b14bd9a3962U, 0x3d0f07da3cacc26aU,
  0xbd32cd17bce9393aU, 0xbddfcf9cbd88a1ffU, 0xbc0fdd05bb54c0edU, 0x3c394e3abd72b3f3U,
  0x3d0fd6133d9798abU, 0xbc917d27bc992119U, 0x3c03ccea3cff91c2U, 0x3d00f86cbcc0da9bU,
  0xbd59f6483d1024e0U, 0x3b14ce65bcbca932U, 0xbdc5b219bdc8d542U, 0x3d3cd369bd0f3347U,
  0x3d70262e3ddbec19U, 0xbdaa52193c9cc6cdU, 0xbcf1920c3d6af3deU, 0x3d390f5b3dad6d71U,
  0x3c2455463d114c3eU, 0x3dd09acb3d378d9aU, 0x3d8724c73cb4a570U, 0x3a9db4523d3fd8a7U,
  0xbc917f83bd9f820aU, 0x3d2c4ff33d69039eU, 0xbcb388263c535df0U, 0x3c2bea5d3e28482aU,
  0xbbfb7ef73cc3e8abU, 0xbc19a8a6bde63818U, 0x3ca76f323c0cf50cU, 0xbdb0ba0abbf6180aU,
  0xbd3d1584be21b915U, 0xbc4811193d3244f9U, 0x3ccf7388bbeb0db7U, 0xbd0110723e113eceU,
  0x3bd1a498bd0066baU, 0x3d13a869be08f6f5U, 0x3d8626e7bc927e2fU, 0xbcae0a66bc8d343dU,
  0xbd3c2af2be52d770U, 0x3d4a50113c3f3148U, 0x3c48af34bad36bb6U, 0xbd4ebceb3d3711f7U,
  0xbbe7657abbec1206U, 0xbca16190bda6d8eaU, 0x3c8de6c73d6855d2U, 0xbd5d7c0539314831U,
  0x3d81a846bd02cd76U, 0xbcd129b3bd0f3db2U, 0xbc7e33cbbdb5f1c1U, 0xbc8698433cced952U,
  0xbcb4e2863d3d0852U, 0x3d84417cbcacece5U, 0x3d98c1ef3d5d75bcU, 0xbd7d13f3bcbf2933U,
  0x3d7d922d3e1457adU, 0xbd553af73d10d009U, 0x3c60aa8b39e431cdU, 0xbdaabd93bccf32a0U,
  0x3c5cec803d4e945eU, 0x3d969fedbd9cbe3cU, 0xbce2f0fbbc19cee7U, 0xbd1e9086bd07e9cbU,
  0x3c68fb923d190005U, 0x3c167bd03d185224U, 0xbd6ef3433d3bd6d7U, 0xbd390ef33cf2fd7bU,
  0x3d64da713d3ec7c1U, 0xbcb3dce2bcb730e8U, 0x3b0703d23c98044dU, 0xbdc74ad23d7e7cebU,
  0x3d323adcbcbc9b75U, 0x3d484fc5bc902244U, 0x3ca483d2bbe8698cU, 0xbc0e03083d2fd8f7U,
  0xbd0363553d9642cdU, 0x3cddc9ca3c407e4cU, 0xbb1ca7efbd0f6719U, 0x3bd6638abab79265U,
  0x3d8f27523dc85614U, 0x3c8aae643d0e64dbU, 0x3ded2df83d2c8cbfU, 0xbd24493e3d2e51f3U,
  0x3d1dc51e3db694d2U, 0x3da300d53d13215bU, 0x3cde58013cd8b86fU, 0x3daf1a913da8bc4dU,
  0xbd5544b03d029d85U, 0xbc751d9d3d31ad37U, 0xbd8de8e5bcaaea81U, 0xbd985bb9bb8cf6dbU,
  0xbd1be485bdf0ea6dU, 0xb88fa04cbd81f138U, 0xbd2e3b68bd21eafaU, 0xbd209799bd3be7bbU,
  0xbde4d534bddb6af0U, 0x3c75a447bda9040bU, 0xbd8b4ceebcf88d6bU, 0xbd12108f3d38c69aU,
  0xbd47460dbda04d0fU, 0xbd8e02fa3d8c96e2U, 0x3c659b583aff9f21U, 0xbde7800e3c1e6db7U,
  0x3d3ea5ba3daa7b2cU, 0x3cfc70363cda19edU, 0xbc91484dbd06124fU, 0x3b49d0453c1b94efU,
  0xbd1c04953d3e645bU, 0x3cb936bdbcefe9a6U, 0xbd5ad591bd1c4604U, 0xbc9f4b5b3cab7bd7U,
  0xbd166b7fbd8f4543U, 0x3cd8c527bc468a27U, 0x3dbbccdfbd56a1f0U, 0x3d5155ee3c84f227U,
  0xba85b4dabda2b51aU, 0x3d89cc753cb2caf0U, 0xb8d93404bbfdd48cU, 0x3cca1b8e3d2a1954U,
  0xbcbc56793d21619aU, 0xba012036bc943e97U, 0x3d31303dbd95987cU, 0xbd28c3c83d9b942fU,
  0x3b7b19ccbd3a24b3U, 0xbd400620bd125939U, 0x3d2e5b52bd80c1b7U, 0x3d8d1ac5bd2d5c9aU,
  0x3d9747c83dd4069cU, 0xbd22adf73d864f6cU, 0xbb9dc2cd3d014eb1U, 0xbc1232f73d85efd5U,
  0xbd2c64f63d2a3854U, 0x3d25e39e3d8d2d43U, 0x3d5f2c40bc9f1a83U, 0x3d2dfc50bd37e0fdU,
  0x3da48f233be5a17aU, 0x3c03d6503d12d188U, 0xbc603f6c3cc87e69U, 0x3cf0e2c93ce67c52U,
  0x3d8a59be3e0fdfd2U, 0x3d91df0a3db250faU, 0x3da90a603cef11c2U, 0x3d01b3763d610aedU,
  0x3d95b9423d750e62U, 0xbccd81673bf8289aU, 0x3d1507db3c61605dU, 0x3bfa83453d10b5c3U,
  0x3d37a8cb3d7d1145U, 0x3ded34fc3d855585U, 0x3dbe50a43d78ffcdU, 0x3c374602bcf706bcU,
  0x3defda8f3cf656a8U, 0xbd8f32943db5e233U, 0xba4c63513d881563U, 0x3d01421dbc5824f2U,
  0x3c9508023dc70edeU, 0x3dddfcbebcae116bU, 0xbd5988bebbc71420U, 0xbce1ace03c1eadc5U,
  0x3d89ac4b3d77b15cU, 0x3cbdf8d93db7ce3dU, 0x3cdc99763d3ab8c6U, 0x3d2f063cbd026139U,
  0xbca779e53d9735f2U, 0x3d3cd9883e0333aaU, 0x3dcd4d8d3ba719f8U, 0x3db64dddbc592c55U,
  0xbd003d1b3d4f0c8eU, 0x3c4f5fe8bceb54dfU, 0x3d0fa98bbbb5e754U, 0x3d97b33e3cb3a7b9U,
  0x3be826efbc9d0574U, 0x3cbfa0033db3ddc6U, 0x3c03827fbd1666a3U, 0x3d3ff9be3cb58096U,
  0xbc906bd23ccb0723U, 0x3ccfd6f63c0f577eU, 0x3d5d8bcc3b24ab37U, 0x3ba639a4bcb02bfbU,
  0x3d445a3a3d0bcf55U, 0x3d7078ec3d60f685U, 0x3d7a563c3d0c751eU, 0x3db675a53c557f36U,
  0xbb579cce3d1d350cU, 0x3aca47033c762137U, 0x3d2d7e72bd5b40bbU, 0x3b9cdb8c3cbe5732U,
  0x3d0e710abd275538U, 0x3c5d0fb4bd2f7fddU, 0x3d3724683b839154U, 0xbd1ff161bce92305U,
  0xbd4178a0bd1b8309U, 0xbbf5b28cbd7f5a95U, 0xbcf7feadbc8a5282U, 0x3cc3aa283cce5f37U,
  0xbd0bf554bd837623U, 0xbb5bfa9dbd15eb61U, 0x3cb6362f3cb5faf1U, 0xbd33e58c3c9eb92cU,
  0x3c42878dbd5a84b0U, 0xbb41bfb5bb1b20feU, 0xbc1ab48cbd718856U, 0xbd0712c03cda7400U,
  0xbd505269bd52b704U, 0xbc0aa61dbbafce70U, 0x3a87d4113cedbe39U, 0x3bdd6d0d3d0b4dd2U,
  0xbd41908d3cd8dc4cU, 0x3c86ce40bda83956U, 0x3d8062eabcf8a428U, 0xbd257dd03c328f76U,
  0x3d1f0d333cf0e0b4U, 0xbd83502abcb574cbU, 0xbe033571bc7f8f98U, 0xbcaa194dbc949cf3U,
  0x3d2d95743d2e5c2dU, 0x3bce4073bcfaf8b5U, 0x3d40e9843c0be46eU, 0xbbf677123c343a3dU,
  0xbcd00d253c71edb6U, 0xbd5395613d2e3f1dU, 0xbcdb5a1cbcf8ced2U, 0xbb988515bc8b2f6cU,
  0x3c9e1b1d3cb4dbb7U, 0xbc97e637bcbd5a1aU, 0x3d259c2fbd5cb918U, 0x3c9332d23bd50409U,
  0xbd9718003cc7644cU, 0xbe0588853d09837cU, 0xbd729bd63909b3ddU, 0x3ce8d01fbd5a024eU,
  0xbdc8f3ac3c71c6a6U, 0xbc1aee25bdcee601U, 0x3d65ff06bd363aa7U, 0xbca675243d25cb4eU,
  0xbd973a7bbd956a84U, 0xbd863ef7bc097354U, 0xbd9f1ad9bdabdf01U, 0x3d06ee28bcc47129U,
  0xbc0d1c33bca4a8e6U, 0xbc83a68dbdf14fffU, 0x3d0b06dbbd772c37U, 0xbb8ffd55bb647881U,
  0xbd6771b9bdbf6e55U, 0xbe1684e23c8bb3e2U, 0xbda2748abd84b10eU, 0xbd82bf483b29a78fU,
  0xbd24e9debc3d3a71U, 0xbc818f02bdec6106U, 0xbd682d0cbcb8a28fU, 0xbd17d6dd3c92548eU,
  0xbd8dae5bbd5aae28U, 0xbd5d45473d4ecdc1U, 0xbdea03d7bd71c9b6U, 0xbd57601b3c4926fdU,
  0xb991e17f3c8a261dU, 0xbd9b3473bd3e1af9U, 0xbbef32c1bc637a99U, 0x3b35106e3d26208dU,
  0xbd8512bf3d3a0d70U, 0x3cb776583c5884deU, 0xbd5479e9bd10693bU, 0xbd9143f4bc52d094U,
  0x3cb172ebbcf98325U, 0xbd67ac6d3cb16939U, 0xbc4276cd3cb10c28U, 0xbd93befabd0780abU,
  0xbd4346f3bba147cdU, 0x3b5771d33d225363U, 0x3ce4ef393b6bef9aU, 0xbd81e8a9bcc8bc38U,
  0x3ce277223c99c0fcU, 0xbb5c547bbc3727feU, 0xbd2435cfbc98a621U, 0xbced54cdbcbf8babU,
  0x3c3c2a183aa7eca9U, 0xbcef64b3bd11c7a8U, 0xbd90fd25bb5205c6U, 0x3b51a0533c7f8d5eU,
  0xbd82e355bbde57fbU, 0x3cb3f04c3d8b64dcU, 0xbc186ba6bd0abc0eU, 0xbc87a4e0bd52462eU,
  0xbd1131c4bd4d877aU, 0x3c00eeb13c7680c8U, 0x3d70b0c8bc6a681eU, 0xbc766d203d1b4a06U,
  0xbc828079bbbbb4a3U, 0xbcf6af92bd17b896U, 0x3d1adb3f3d357a69U, 0xbce6f1483d0e2e52U,
  0xbcf837f13d6a5c88U, 0xbbb339c3bd0d0e18U, 0xbd2424d83c15e217U, 0x3ccffee73ccadbbdU,
  0x3dcaa6ea3ce9107aU, 0x3c0128e03d28cfc8U, 0xbc7237fd3d83221aU, 0x3a28483f3cb12832U,
  0xbd4927bd3d288e53U, 0x3d81dd2e3dc3d762U, 0xbda7ae12bd4ea65eU, 0x3d7cfcc2bca56032U,
  0x3c24f3213d3da0b4U, 0xbcbd89533cbc506aU, 0x3c874bbe3d220dbfU, 0xbc9fcf4f3d74ce29U,
  0x3d1860a33d379b7eU, 0x3c7b05903d51e3bbU, 0xbdc0f2ee3d38eef3U, 0x3d14ce4e3d054b29U,
  0x3d96e2c83d9b8280U, 0xba2eb61a3d192be5U, 0x3cf188db3db5c761U, 0x3d5a3d85bd0b214eU,
  0x3d8b91453cdb9835U, 0xbca80bef3dbc1fedU, 0xbd8d30703ccd5244U, 0x3ca53aa93dc37bbcU,
  0xbbd3b1c33d08e172U, 0x3d7d95603c9ba3bdU, 0x3d91d67b3d20dbbdU, 0x3d5dfdf3bdaa163bU,
  0x3d377525bd3631f5U, 0xbd0eb48e3e00c526U, 0xbcf5db893a48b3ffU, 0x3d13aba23d8fc55dU,
  0xbd21686a3da25f8cU, 0xb9eaf24dbdb72a37U, 0x3d6845d7bcd553c4U, 0xbcc28651bd23bc55U,
  0x3c860f5abca73ae0U, 0xbd6180143de00cd5U, 0xbc9f373abd21d16fU, 0x3dd9af34bc332f0fU,
  0xbca331923baa4d9fU, 0xbd302f27bcee2f8eU, 0x3b820192bd34091dU, 0x3bd38458bdcec22eU,
  0xbb57e8593cec221fU, 0xbde0f9f13dd27075U, 0xbd70248cbccd3c7bU, 0x3de032193d4b4450U,
  0x3cc16dd73cf87fb9U, 0x3d1e6881bd3c69f0U, 0x3c9fe89f3ce9e8aaU, 0xbcd9ed4dbd89d9cdU,
  0xbc35318bbc47f54aU, 0xbdd00e533d5f57c5U, 0xbd5c117ebca86f61U, 0x3da05a4dbb9ed185U,
  0xbc42e79e3d07dfc9U, 0x3c212a173bd6139bU, 0xbba8b0abbd08c3bcU, 0xbd3228ebbce4df5eU,
  0x3b910a493d35e24fU, 0xbd08dcad3c781040U, 0xbd184df63cf3fab6U, 0x3c23ec7a3c669afeU,
  0x3ca91f11ba9d6354U, 0x39a672b5bda5f3daU, 0x3cf1a76bbbd04e99U, 0x3d3926b3bcf95919U,
  0x3d0f802f3d0c2fceU, 0xbccdba4dbcdc9256U, 0xbd0ae5a63d590070U, 0x3c836b80bce3d858U,
  0xbc1bd03abcd1b185U, 0xba447b50bba67c19U, 0xbab25880bd662c3dU, 0x3c23f1ac3b94055dU,
  0xbcc125fc3d17ea1bU, 0x3d1d68aebc228870U, 0xbd9c9ade3b8c8f12U, 0x3d7a60633cc459a4U,
  0x3c73fca4bc06925aU, 0xbcd915bcbc615f15U, 0x3d2af91c3c0579efU, 0x3cd5d576bb539bb4U,
  0xbba2fe1f3d2bdbdcU, 0xbd752f77bc6da5bcU, 0xbd7610afbd9d0552U, 0x3d356609bd4e99a8U,
  0x3da600c13da79aacU, 0xbce3f57c3d6419e4U, 0x3d669d363cb28d28U, 0xbd2454c13d0a0bd2U,
  0xbbec95693d081c49U, 0x3d7da4bc3d6b85b4U, 0xbcdc6697bd5cab22U, 0x3e024f7ebc30092dU,
  0x3d6aeb803d5622bcU, 0xbce0c7a3bc0c54efU, 0x3d82a2e63c919596U, 0x3d14822ebb20b371U,
  0x3d828ad93db262efU, 0x3c90886d3c4e2faeU, 0xbdb697c4bc35cb06U, 0x3de6adfb3d0f0f9aU,
  0x3d28fedf3dc2bdceU, 0x3cd3e82d3d6ed16eU, 0x3d47a3f53b24d533U, 0x3d34cf0e3c694139U,
  0x3b7b6b253d9d02c8U, 0x3d7fd4ea3d30fa93U, 0xbdde8b633d640720U, 0x3e07b7333c76f529U,
  0x3daef6473d0a53cfU, 0x3d0b8d593d49e6aeU, 0x3e0889db3c44c4beU, 0x3de04aa0bdd4ba38U,
  0x3ca6db9bbcc4a65eU, 0x3c49a4973d791becU, 0xbd2f98483c0ee6a3U, 0x3dd1f87b3dcc7d0dU,
  0x3c04b0dc3d2befefU, 0x3ca75c513c3c0cdcU, 0x3e7ee1353d5134feU, 0x3dd915adbdb34d7cU,
  0x3d880d013d7f6570U, 0xbd836cdd3d9ab117U, 0xbc18f81d3c21fc79U, 0x3e190cc33d7d0ee9U,
  0xbd0942343dec21e7U, 0x3d3f6633bd6646f5U, 0x3e8b57e43d338f92U, 0x3d8ff17cbe38f5f3U,
  0x3dd72e0cbd7a202cU, 0xbd3f5e713d9ad524U, 0x3ba5ba653d45b5c2U, 0x3e74554b3d274199U,
  0xbcb8342d3d90d092U, 0x3d7048e8bcecaf49U, 0x3e48b829bd214489U, 0x3db74beabe6f12f8U,
  0x3d881283bb8d208bU, 0xbdf0b99f3e035c58U, 0x3cdd187cbb6fa670U, 0x3e634e913bd2126cU,
  0x3c441f2a3d4845fdU, 0xbb4f01f2bc3e6908U, 0x3e2244423caba931U, 0x3bdf8be0be053fd2U,
  0x3d9c3cc0bcdb5f3fU, 0xbde1560c3c7b54c8U, 0x3c2d85193d316542U, 0x3d9696053c1fe532U,
  0xbd81416dbd801fb1U, 0x3d559e3fbc700a31U, 0x3d08809ebc175395U, 0x3d3be336bd83646fU,
  0x3d17a555bc9bcfaeU, 0x3ad1ee353d329f9aU, 0x3d6365793d358c4aU, 0xbc3205573c1968e7U,
  0x3c7881e9bbbfcd0aU, 0x3d0ec199bbc19898U, 0x3b8a49fb3d5c900bU, 0xbc097fd5bcb6d82cU,
  0x3d59a6663b8aa254U, 0xbc8806963cdc8429U, 0x3d42dda13cdf5f1bU, 0xbcd52a62bcf4ec84U,
  0xbd200047bd1770caU, 0xbd66af3bbd304c42U, 0xbb808ab73c9b8635U, 0xbc07d46cbd2d4ca7U,
  0xbd18212cbc42c786U, 0xbd1e4cfb3d0222aaU, 0xbcccca343c4aa1a8U, 0x3d98c9583d0bc7d5U,
  0x3d322a113dca2816U, 0x3cfb4437baaa7125U, 0x3c293653bcd6b372U, 0xbca4a3ffbc03a0a1U,
  0xba54d1073d901880U, 0xbc982a293d8a69e4U, 0x3bd236c6bb9b6787U, 0x3db4b7cfbc3e39f0U,
  0x3d3a52c13d8d0f0fU, 0x3c1f52a83b4b5849U, 0x3cffd8dfbce0a6d9U, 0xbcabf5c5bd39212dU,
  0x3db1241b3d32b0c0U, 0xbc051dc63db7d622U, 0x3abe65523bf6f10dU, 0x3d2708f43da25b4dU,
  0x3c023ff53d025059U, 0xbd3ffa7fbd685989U, 0x3dde3b78bcbc5852U, 0xbcbe7437bca51313U,
  0xbc61b8bc3d54f5dbU, 0xbc9d16673d4c0c71U, 0xbe04f5d4bd43c54fU, 0x3e05402d3d0ceae9U,
  0x3be238dc3c6756d0U, 0xbcb22bb63c5a402fU, 0x3e1346c73d6b21cbU, 0xbba9cb15bb0ff9a9U,
  0x3d06e3183d44912bU, 0xbcd0a5c03c6186f1U, 0xbe17ed3dbcc58c4aU, 0x3e50e2163c5d1ab2U,
  0xbac98a6fbcb449bfU, 0x3be342563d53b6eaU, 0x3e23b8d03d070ab9U, 0x3c76e2633c71a1d2U,
  0x3d7159643acf27d2U, 0xbc8af5483b33f0aaU, 0xbdacf85f3cc45887U, 0x3e06084b3d953321U,
  0x3cdcdd053cddd0adU, 0xbd33ae423c8ebc6cU, 0x3dfe3b3a39021388U, 0x3d90b664bd86c0bcU,
  0x3dcb4a323cc37553U, 0x3a8f94f33cf6dfebU, 0xbd0350d73d712ab5U, 0x3e2b093c3d154caaU,
  0x3c7c80a43d6bff23U, 0x3c79cd9e3ca7b632U, 0x3da3bc433d6e29ceU, 0x3d9d0d55be37e37dU,
  0x3d065bf13cec56dcU, 0xbd8906d23e07845fU, 0x3d6c14f43dc0a6a4U, 0x3e0da6f43d80c2bfU,
  0x3cb5bdeb3d1c7acaU, 0x3a2dfbe53ac60340U, 0x3d921d5c3d983616U, 0x3d5b68dfbe99ce00U,
  0x3dbe7a7339e1c710U, 0xbd16c3963da5af35U, 0x3d77c3243d899b9fU, 0x3e39c2d23c991b08U,
  0xbd53541c3c7a84c1U, 0x3cd91e7bbc010457U, 0x3e3c061abbe5ffa3U, 0x3d30ad6bbe100a7aU,
  0x3cee948c3bdfe0ecU, 0xbd31fd883da95986U, 0x3d8676043da7ed11U, 0x3e32c12c3d69354eU,
  0xbd45ba4abe08bb86U, 0x3c540f98bd162adeU, 0x3c015da8bcdff5a6U, 0x3d3421c5bd505518U,
  0x3d490db3bdabe57bU, 0xbd95ad3e3c6e680bU, 0xbd0179a53d8f0068U, 0x3db518f23d741ccfU,
  0xbd891577bda2e918U, 0x3d71db483d9f4fdeU, 0xbcfd19693d2957cfU, 0x3cee34f7bda16a66U,
  0x3ce2b1683c83ab9bU, 0xbd8b8d5fbd566623U, 0xbbdaa2a13bff64b9U, 0xbca40e2ebc67ee43U,
  0xbb095cce3c5e7fe9U, 0x3cc350e13cf77caeU, 0xbd842813bbae3112U, 0xbba8bb84bd1612a1U,
  0xbcbde64e3ce6d163U, 0x3cdbd5163d740d04U, 0x3c8616243d45e55eU, 0x3d27efc33c8baba0U,
  0xbabe5ccd3da20a9bU, 0x3cf4e6363c01a834U, 0x3e0a70fcbc1b5e74U, 0x3d4cfc81bd3c7e7cU,
  0x3d27b1c9bca476d3U, 0xbd2258a33d01318eU, 0x3cb78a0dbbd66d2dU, 0x3d8ca89f3d1d7170U,
  0xbd8937c3bd12dd12U, 0x3d552f80bd80cf4eU, 0x3d986deb3cde5d15U, 0x3c8703f73ce9ab1fU,
  0xbba46168bd2d0935U, 0xbcf8fd6cbd7133b4U, 0xbd8410b23d008e6eU, 0x3e1f4063bc8ccaaeU,
  0xbbb77a5d3b372b41U, 0xbd9f8adbbd241929U, 0x3d1ad4dabc0b870fU, 0x3d0b4f603cfac10dU,
  0x3d041ffa3c39f670U, 0xbd27da1c3c25c9a3U, 0xbc7665a6bc175165U, 0x3dbbfedabbbf5a18U,
  0x3bf77bd9bd50c58eU, 0xbdf9f2ddbd40c2ebU, 0x3d112a7dbce02574U, 0x3bc273c33deeca7fU,
  0xbcfdec5c3b2c2f6fU, 0xbd14ee55bddd3071U, 0xbd716a8dbbdbe35fU, 0x3dcafdedb95f6a50U,
  0x3cd9933bbbbdeb40U, 0xbd9fe54a3c5a7724U, 0x3dd07aa03c4b9473U, 0x3cbb07083cce47d6U,
  0x3d096a283ca48929U, 0x3d5aadeebdb2495aU, 0xbd49e8953c8b8104U, 0x3e18b6dfbabd3387U,
  0xbc802a493ce21b68U, 0x3c5670053bf5e323U, 0x3df4f667bd1ed471U, 0xbd27690bbd733036U,
  0xbc50ce533cde1327U, 0x3972bbdbbcd6983aU, 0xbdbdfba43d2f7bcaU, 0x3d7499cb3d3ba7b6U,
  0x3b375adbbd4764b0U, 0x3aa6161a3d075fcfU, 0x3e0753713bf4c431U, 0x3d4b7771bdf2ef01U,
  0x3dc15a84bd9fc0d4U, 0xbd670437bdf2afd6U, 0xbc8dd2b53bd0caf7U, 0x3d58bfd9bba7fdd7U,
  0xbd0b2069bc82e048U, 0xbc56dbb43d150216U, 0x3dfa60c0bd29df0cU, 0x3d6a9629bcdab7d3U,
  0x3d90eb163b138d78U, 0x3b82ddcabdaaf9bbU, 0x3c5d16f13bb609b1U, 0x3db344423baf9c91U,
  0xbd2e8af4bdc3bc94U, 0x3d2708593c77d961U, 0x3e0969133d5b47c0U, 0x3bdb0a9fbd7efcebU,
  0xbc39a2323bccb938U, 0x3cd73184bcf8b1e3U, 0x3d91d55a3d7cd299U, 0x3d99d6673cbf1f88U,
  0xbd9ecdbabdb8c68aU, 0xbbe3a6543d1e842fU, 0xbcf5255c3d4793e5U, 0xbd013a16b8497eb8U,
